{
  "version": "1.0",
  "truncation": null,
  "padding": null,
  "added_tokens": [
    {
      "id": 0,
      "content": "[UNK]",
      "single_word": false,
      "lstrip": false,
      "rstrip": false,
      "normalized": false,
      "special": true
    },
    {
      "id": 1,
      "content": "[CLS]",
      "single_word": false,
      "lstrip": false,
      "rstrip": false,
      "normalized": false,
      "special": true
    },
    {
      "id": 2,
      "content": "[SEP]",
      "single_word": false,
      "lstrip": false,
      "rstrip": false,
      "normalized": false,
      "special": true
    },
    {
      "id": 3,
      "content": "[PAD]",
      "single_word": false,
      "lstrip": false,
      "rstrip": false,
      "normalized": false,
      "special": true
    },
    {
      "id": 4,
      "content": "[MASK]",
      "single_word": false,
      "lstrip": false,
      "rstrip": false,
      "normalized": false,
      "special": true
    },
    {
      "id": 30000,
      "content": "<pad>",
      "single_word": false,
      "lstrip": false,
      "rstrip": false,
      "normalized": false,
      "special": true
    },
    {
      "id": 30001,
      "content": "<s>",
      "single_word": false,
      "lstrip": false,
      "rstrip": false,
      "normalized": false,
      "special": true
    },
    {
      "id": 30002,
      "content": "</s>",
      "single_word": false,
      "lstrip": false,
      "rstrip": false,
      "normalized": false,
      "special": true
    },
    {
      "id": 30003,
      "content": "<unk>",
      "single_word": false,
      "lstrip": false,
      "rstrip": false,
      "normalized": false,
      "special": true
    },
    {
      "id": 30004,
      "content": "<mask>",
      "single_word": false,
      "lstrip": false,
      "rstrip": false,
      "normalized": false,
      "special": true
    }
  ],
  "normalizer": null,
  "pre_tokenizer": {
    "type": "Whitespace"
  },
  "post_processor": null,
  "decoder": null,
  "model": {
    "type": "BPE",
    "dropout": null,
    "unk_token": "[UNK]",
    "continuing_subword_prefix": null,
    "end_of_word_suffix": null,
    "fuse_unk": false,
    "vocab": {
      "[UNK]": 0,
      "[CLS]": 1,
      "[SEP]": 2,
      "[PAD]": 3,
      "[MASK]": 4,
      "\u0003": 5,
      "\u0017": 6,
      "\u001b": 7,
      "!": 8,
      "\"": 9,
      "#": 10,
      "$": 11,
      "%": 12,
      "&": 13,
      "'": 14,
      "(": 15,
      ")": 16,
      "*": 17,
      "+": 18,
      ",": 19,
      "-": 20,
      ".": 21,
      "/": 22,
      "0": 23,
      "1": 24,
      "2": 25,
      "3": 26,
      "4": 27,
      "5": 28,
      "6": 29,
      "7": 30,
      "8": 31,
      "9": 32,
      ":": 33,
      ";": 34,
      "<": 35,
      "=": 36,
      ">": 37,
      "?": 38,
      "@": 39,
      "A": 40,
      "B": 41,
      "C": 42,
      "D": 43,
      "E": 44,
      "F": 45,
      "G": 46,
      "H": 47,
      "I": 48,
      "J": 49,
      "K": 50,
      "L": 51,
      "M": 52,
      "N": 53,
      "O": 54,
      "P": 55,
      "Q": 56,
      "R": 57,
      "S": 58,
      "T": 59,
      "U": 60,
      "V": 61,
      "W": 62,
      "X": 63,
      "Y": 64,
      "Z": 65,
      "[": 66,
      "\\": 67,
      "]": 68,
      "^": 69,
      "_": 70,
      "`": 71,
      "a": 72,
      "b": 73,
      "c": 74,
      "d": 75,
      "e": 76,
      "f": 77,
      "g": 78,
      "h": 79,
      "i": 80,
      "j": 81,
      "k": 82,
      "l": 83,
      "m": 84,
      "n": 85,
      "o": 86,
      "p": 87,
      "q": 88,
      "r": 89,
      "s": 90,
      "t": 91,
      "u": 92,
      "v": 93,
      "w": 94,
      "x": 95,
      "y": 96,
      "z": 97,
      "{": 98,
      "|": 99,
      "}": 100,
      "~": 101,
      "£": 102,
      "§": 103,
      "®": 104,
      "°": 105,
      "±": 106,
      "³": 107,
      "´": 108,
      "µ": 109,
      "À": 110,
      "Ç": 111,
      "É": 112,
      "Ì": 113,
      "Ö": 114,
      "×": 115,
      "ä": 116,
      "å": 117,
      "æ": 118,
      "è": 119,
      "é": 120,
      "ö": 121,
      "ø": 122,
      "ú": 123,
      "ü": 124,
      "ă": 125,
      "ą": 126,
      "ğ": 127,
      "ĭ": 128,
      "İ": 129,
      "ş": 130,
      "ţ": 131,
      "ǀ": 132,
      "ə": 133,
      "ʰ": 134,
      "ʹ": 135,
      "˧": 136,
      "̀": 137,
      "̃": 138,
      "̄": 139,
      "̍": 140,
      "̩": 141,
      "Α": 142,
      "Σ": 143,
      "Ω": 144,
      "α": 145,
      "β": 146,
      "θ": 147,
      "λ": 148,
      "σ": 149,
      "ω": 150,
      "–": 151,
      "—": 152,
      "‘": 153,
      "’": 154,
      "“": 155,
      "”": 156,
      "…": 157,
      "′": 158,
      "″": 159,
      "‴": 160,
      "‵": 161,
      "‶": 162,
      "‷": 163,
      "⁗": 164,
      "€": 165,
      "↑": 166,
      "→": 167,
      "↗": 168,
      "∅": 169,
      "−": 170,
      "∼": 171,
      "≈": 172,
      "≤": 173,
      "≥": 174,
      "─": 175,
      "│": 176,
      "┌": 177,
      "┐": 178,
      "└": 179,
      "┘": 180,
      "├": 181,
      "┤": 182,
      "┬": 183,
      "┼": 184,
      "═": 185,
      "╒": 186,
      "╕": 187,
      "╘": 188,
      "╛": 189,
      "╞": 190,
      "╡": 191,
      "╤": 192,
      "╧": 193,
      "╪": 194,
      "█": 195,
      "◊": 196,
      "☃": 197,
      "✌": 198,
      "✔": 199,
      "✕": 200,
      "✘": 201,
      "Ⱡ": 202,
      "、": 203,
      "。": 204,
      "・": 205,
      "一": 206,
      "上": 207,
      "下": 208,
      "不": 209,
      "与": 210,
      "且": 211,
      "丢": 212,
      "两": 213,
      "个": 214,
      "中": 215,
      "串": 216,
      "为": 217,
      "主": 218,
      "么": 219,
      "义": 220,
      "乐": 221,
      "了": 222,
      "二": 223,
      "于": 224,
      "五": 225,
      "些": 226,
      "交": 227,
      "京": 228,
      "亮": 229,
      "仅": 230,
      "从": 231,
      "他": 232,
      "代": 233,
      "以": 234,
      "们": 235,
      "件": 236,
      "价": 237,
      "仿": 238,
      "优": 239,
      "会": 240,
      "传": 241,
      "似": 242,
      "但": 243,
      "位": 244,
      "低": 245,
      "体": 246,
      "余": 247,
      "作": 248,
      "使": 249,
      "依": 250,
      "保": 251,
      "信": 252,
      "修": 253,
      "倍": 254,
      "值": 255,
      "儿": 256,
      "元": 257,
      "充": 258,
      "先": 259,
      "光": 260,
      "免": 261,
      "入": 262,
      "全": 263,
      "公": 264,
      "关": 265,
      "其": 266,
      "典": 267,
      "内": 268,
      "写": 269,
      "况": 270,
      "几": 271,
      "出": 272,
      "函": 273,
      "分": 274,
      "列": 275,
      "则": 276,
      "初": 277,
      "判": 278,
      "别": 279,
      "到": 280,
      "制": 281,
      "券": 282,
      "前": 283,
      "剧": 284,
      "剩": 285,
      "功": 286,
      "加": 287,
      "务": 288,
      "动": 289,
      "助": 290,
      "包": 291,
      "化": 292,
      "匹": 293,
      "医": 294,
      "半": 295,
      "单": 296,
      "南": 297,
      "卧": 298,
      "印": 299,
      "即": 300,
      "历": 301,
      "压": 302,
      "原": 303,
      "去": 304,
      "发": 305,
      "取": 306,
      "句": 307,
      "另": 308,
      "只": 309,
      "可": 310,
      "史": 311,
      "号": 312,
      "司": 313,
      "各": 314,
      "合": 315,
      "同": 316,
      "名": 317,
      "后": 318,
      "向": 319,
      "否": 320,
      "周": 321,
      "和": 322,
      "唱": 323,
      "商": 324,
      "器": 325,
      "回": 326,
      "国": 327,
      "在": 328,
      "地": 329,
      "场": 330,
      "均": 331,
      "坐": 332,
      "块": 333,
      "型": 334,
      "城": 335,
      "填": 336,
      "声": 337,
      "处": 338,
      "复": 339,
      "外": 340,
      "多": 341,
      "大": 342,
      "天": 343,
      "失": 344,
      "头": 345,
      "奖": 346,
      "如": 347,
      "始": 348,
      "子": 349,
      "字": 350,
      "存": 351,
      "季": 352,
      "宋": 353,
      "定": 354,
      "实": 355,
      "宽": 356,
      "寸": 357,
      "对": 358,
      "寻": 359,
      "将": 360,
      "小": 361,
      "少": 362,
      "尝": 363,
      "尺": 364,
      "已": 365,
      "市": 366,
      "帮": 367,
      "平": 368,
      "年": 369,
      "并": 370,
      "序": 371,
      "库": 372,
      "应": 373,
      "度": 374,
      "座": 375,
      "建": 376,
      "开": 377,
      "弃": 378,
      "式": 379,
      "强": 380,
      "归": 381,
      "当": 382,
      "录": 383,
      "形": 384,
      "彩": 385,
      "影": 386,
      "径": 387,
      "待": 388,
      "很": 389,
      "微": 390,
      "心": 391,
      "快": 392,
      "性": 393,
      "息": 394,
      "情": 395,
      "意": 396,
      "戏": 397,
      "成": 398,
      "我": 399,
      "所": 400,
      "手": 401,
      "打": 402,
      "执": 403,
      "批": 404,
      "找": 405,
      "技": 406,
      "报": 407,
      "持": 408,
      "指": 409,
      "按": 410,
      "据": 411,
      "排": 412,
      "接": 413,
      "插": 414,
      "支": 415,
      "改": 416,
      "放": 417,
      "效": 418,
      "数": 419,
      "整": 420,
      "文": 421,
      "断": 422,
      "新": 423,
      "方": 424,
      "无": 425,
      "日": 426,
      "时": 427,
      "明": 428,
      "映": 429,
      "是": 430,
      "显": 431,
      "暂": 432,
      "曙": 433,
      "曲": 434,
      "更": 435,
      "最": 436,
      "月": 437,
      "有": 438,
      "期": 439,
      "未": 440,
      "本": 441,
      "术": 442,
      "杂": 443,
      "权": 444,
      "束": 445,
      "条": 446,
      "来": 447,
      "板": 448,
      "构": 449,
      "析": 450,
      "果": 451,
      "某": 452,
      "查": 453,
      "标": 454,
      "栈": 455,
      "样": 456,
      "根": 457,
      "格": 458,
      "档": 459,
      "检": 460,
      "楷": 461,
      "標": 462,
      "模": 463,
      "次": 464,
      "歌": 465,
      "止": 466,
      "正": 467,
      "此": 468,
      "殊": 469,
      "段": 470,
      "每": 471,
      "比": 472,
      "求": 473,
      "没": 474,
      "法": 475,
      "注": 476,
      "添": 477,
      "清": 478,
      "源": 479,
      "漂": 480,
      "演": 481,
      "点": 482,
      "热": 483,
      "然": 484,
      "照": 485,
      "特": 486,
      "现": 487,
      "理": 488,
      "生": 489,
      "用": 490,
      "田": 491,
      "由": 492,
      "电": 493,
      "画": 494,
      "略": 495,
      "百": 496,
      "的": 497,
      "目": 498,
      "直": 499,
      "相": 500,
      "省": 501,
      "知": 502,
      "矩": 503,
      "码": 504,
      "硬": 505,
      "确": 506,
      "示": 507,
      "票": 508,
      "离": 509,
      "种": 510,
      "积": 511,
      "称": 512,
      "立": 513,
      "站": 514,
      "童": 515,
      "笔": 516,
      "符": 517,
      "第": 518,
      "等": 519,
      "策": 520,
      "筛": 521,
      "简": 522,
      "算": 523,
      "类": 524,
      "糖": 525,
      "系": 526,
      "素": 527,
      "細": 528,
      "繁": 529,
      "约": 530,
      "纬": 531,
      "线": 532,
      "细": 533,
      "经": 534,
      "结": 535,
      "给": 536,
      "继": 537,
      "续": 538,
      "编": 539,
      "缺": 540,
      "置": 541,
      "考": 542,
      "者": 543,
      "而": 544,
      "耗": 545,
      "联": 546,
      "股": 547,
      "能": 548,
      "自": 549,
      "致": 550,
      "舞": 551,
      "节": 552,
      "若": 553,
      "莆": 554,
      "获": 555,
      "菜": 556,
      "虑": 557,
      "行": 558,
      "表": 559,
      "被": 560,
      "要": 561,
      "规": 562,
      "视": 563,
      "解": 564,
      "计": 565,
      "认": 566,
      "记": 567,
      "证": 568,
      "识": 569,
      "词": 570,
      "试": 571,
      "话": 572,
      "询": 573,
      "该": 574,
      "详": 575,
      "语": 576,
      "请": 577,
      "读": 578,
      "调": 579,
      "象": 580,
      "败": 581,
      "赛": 582,
      "起": 583,
      "超": 584,
      "距": 585,
      "跟": 586,
      "路": 587,
      "蹈": 588,
      "軟": 589,
      "车": 590,
      "软": 591,
      "较": 592,
      "辅": 593,
      "辑": 594,
      "输": 595,
      "达": 596,
      "过": 597,
      "近": 598,
      "返": 599,
      "还": 600,
      "这": 601,
      "进": 602,
      "远": 603,
      "退": 604,
      "选": 605,
      "逐": 606,
      "递": 607,
      "通": 608,
      "速": 609,
      "逻": 610,
      "遇": 611,
      "避": 612,
      "那": 613,
      "部": 614,
      "都": 615,
      "配": 616,
      "采": 617,
      "里": 618,
      "重": 619,
      "量": 620,
      "钟": 621,
      "铁": 622,
      "销": 623,
      "错": 624,
      "键": 625,
      "长": 626,
      "问": 627,
      "间": 628,
      "防": 629,
      "限": 630,
      "院": 631,
      "除": 632,
      "雅": 633,
      "集": 634,
      "需": 635,
      "面": 636,
      "音": 637,
      "页": 638,
      "项": 639,
      "预": 640,
      "题": 641,
      "额": 642,
      "馆": 643,
      "首": 644,
      "马": 645,
      "體": 646,
      "高": 647,
      "魔": 648,
      "黑": 649,
      "默": 650,
      "︠": 651,
      "︡": 652,
      "（": 653,
      "）": 654,
      "，": 655,
      "１": 656,
      "：": 657,
      "🤖": 658,
      "in": 659,
      "se": 660,
      "re": 661,
      "on": 662,
      "at": 663,
      "er": 664,
      "or": 665,
      "st": 666,
      "th": 667,
      "en": 668,
      "al": 669,
      "ar": 670,
      "de": 671,
      "an": 672,
      "le": 673,
      "me": 674,
      "\"\"": 675,
      "ti": 676,
      "ur": 677,
      "the": 678,
      "if": 679,
      "lf": 680,
      "ce": 681,
      "self": 682,
      "is": 683,
      "te": 684,
      "ro": 685,
      "ge": 686,
      "to": 687,
      "ing": 688,
      "co": 689,
      "--": 690,
      "ame": 691,
      "fi": 692,
      "lo": 693,
      "for": 694,
      "pe": 695,
      "ue": 696,
      "urn": 697,
      "):": 698,
      "t_": 699,
      "ch": 700,
      "as": 701,
      "turn": 702,
      "\"\"\"": 703,
      "el": 704,
      "tion": 705,
      "li": 706,
      "ra": 707,
      "un": 708,
      "ate": 709,
      "di": 710,
      "no": 711,
      "ion": 712,
      "ct": 713,
      "return": 714,
      "of": 715,
      "and": 716,
      "id": 717,
      "def": 718,
      "ul": 719,
      "con": 720,
      "ent": 721,
      "ad": 722,
      "mp": 723,
      "val": 724,
      "name": 725,
      "ri": 726,
      "ty": 727,
      "par": 728,
      "ter": 729,
      "one": 730,
      "res": 731,
      "ma": 732,
      "ex": 733,
      "ut": 734,
      "ke": 735,
      "ata": 736,
      "um": 737,
      "si": 738,
      "am": 739,
      "ab": 740,
      "None": 741,
      "ation": 742,
      "()": 743,
      "es": 744,
      "ed": 745,
      "data": 746,
      "str": 747,
      "ts": 748,
      "he": 749,
      "not": 750,
      "ck": 751,
      "',": 752,
      "up": 753,
      "tr": 754,
      "be": 755,
      "value": 756,
      "mo": 757,
      "----": 758,
      "('": 759,
      "op": 760,
      "type": 761,
      "ver": 762,
      "ser": 763,
      "))": 764,
      "mat": 765,
      "['": 766,
      "_p": 767,
      "wi": 768,
      "']": 769,
      "arg": 770,
      "ction": 771,
      "ol": 772,
      "ap": 773,
      "param": 774,
      "ve": 775,
      "d_": 776,
      "it": 777,
      "file": 778,
      "ne": 779,
      "sh": 780,
      "key": 781,
      "int": 782,
      "ob": 783,
      "pro": 784,
      "vi": 785,
      "len": 786,
      "ta": 787,
      "ror": 788,
      "all": 789,
      "==": 790,
      "ath": 791,
      "end": 792,
      "cl": 793,
      "Re": 794,
      "able": 795,
      "do": 796,
      "ss": 797,
      "')": 798,
      "list": 799,
      "il": 800,
      "pa": 801,
      "out": 802,
      "po": 803,
      "set": 804,
      "args": 805,
      "get": 806,
      "time": 807,
      "else": 808,
      "s_": 809,
      "ult": 810,
      "so": 811,
      "bu": 812,
      "qu": 813,
      "su": 814,
      "la": 815,
      "bo": 816,
      "rom": 817,
      "with": 818,
      "obj": 819,
      "col": 820,
      "lin": 821,
      "ord": 822,
      "ig": 823,
      "from": 824,
      "ance": 825,
      "':": 826,
      "``": 827,
      "ren": 828,
      "path": 829,
      "app": 830,
      "log": 831,
      "ment": 832,
      "fo": 833,
      "The": 834,
      "get_": 835,
      "cep": 836,
      "Er": 837,
      "by": 838,
      "Error": 839,
      "''": 840,
      "ect": 841,
      "(\"": 842,
      "Tr": 843,
      "ic": 844,
      "inst": 845,
      "age": 846,
      "ly": 847,
      "ise": 848,
      "ze": 849,
      "per": 850,
      "ray": 851,
      "tex": 852,
      "ms": 853,
      "ass": 854,
      "ll": 855,
      "),": 856,
      "sion": 857,
      "use": 858,
      "ted": 859,
      "are": 860,
      "string": 861,
      "num": 862,
      "ba": 863,
      "ht": 864,
      "True": 865,
      "format": 866,
      "ort": 867,
      "ho": 868,
      "che": 869,
      "mode": 870,
      "array": 871,
      "raise": 872,
      "np": 873,
      "ite": 874,
      "fig": 875,
      "us": 876,
      "pre": 877,
      "00": 878,
      "_name": 879,
      "cal": 880,
      "fun": 881,
      "fe": 882,
      "we": 883,
      "ist": 884,
      "alse": 885,
      "flo": 886,
      "que": 887,
      "date": 888,
      "ype": 889,
      "cur": 890,
      "pec": 891,
      "_id": 892,
      "ds": 893,
      "text": 894,
      "code": 895,
      "try": 896,
      "com": 897,
      "False": 898,
      "sp": 899,
      "tri": 900,
      "url": 901,
      "put": 902,
      "\",": 903,
      "ers": 904,
      "line": 905,
      "ces": 906,
      "wh": 907,
      "instance": 908,
      "])": 909,
      "that": 910,
      "red": 911,
      "min": 912,
      "option": 913,
      "Return": 914,
      "mple": 915,
      "**": 916,
      "defa": 917,
      "],": 918,
      "fa": 919,
      "dict": 920,
      ">>": 921,
      "py": 922,
      "im": 923,
      "et": 924,
      "float": 925,
      "ac": 926,
      "_c": 927,
      "object": 928,
      "user": 929,
      "os": 930,
      "star": 931,
      "ext": 932,
      "_s": 933,
      "_in": 934,
      "..": 935,
      "this": 936,
      "excep": 937,
      "sub": 938,
      "config": 939,
      "node": 940,
      "ure": 941,
      "ameter": 942,
      "values": 943,
      "max": 944,
      "urce": 945,
      "mage": 946,
      "ph": 947,
      "und": 948,
      "append": 949,
      "{}": 950,
      "new": 951,
      "gro": 952,
      "ust": 953,
      "sen": 954,
      "quest": 955,
      "tes": 956,
      "In": 957,
      "size": 958,
      "read": 959,
      "\")": 960,
      "ber": 961,
      "add": 962,
      "od": 963,
      "cre": 964,
      "__": 965,
      "result": 966,
      "pon": 967,
      "kw": 968,
      "dex": 969,
      "fiel": 970,
      "ary": 971,
      "low": 972,
      "ange": 973,
      "form": 974,
      "has": 975,
      "pu": 976,
      "model": 977,
      "vice": 978,
      "ctor": 979,
      "cont": 980,
      "table": 981,
      "elif": 982,
      "coun": 983,
      "ca": 984,
      "pr": 985,
      ").": 986,
      "var": 987,
      "ans": 988,
      "Ex": 989,
      "sy": 990,
      "ci": 991,
      "comp": 992,
      "='": 993,
      "cess": 994,
      "row": 995,
      "function": 996,
      "iv": 997,
      "image": 998,
      "ali": 999,
      "sig": 1000,
      "request": 1001,
      "default": 1002,
      "ther": 1003,
      "gs": 1004,
      "--------": 1005,
      "_type": 1006,
      "will": 1007,
      "error": 1008,
      "om": 1009,
      "kwargs": 1010,
      "except": 1011,
      "c_": 1012,
      "enti": 1013,
      "head": 1014,
      "ger": 1015,
      "ated": 1016,
      "respon": 1017,
      "ape": 1018,
      "Returns": 1019,
      "ax": 1020,
      "ip": 1021,
      "can": 1022,
      "If": 1023,
      "meth": 1024,
      "De": 1025,
      "Val": 1026,
      "spec": 1027,
      "du": 1028,
      "y_": 1029,
      "class": 1030,
      "dir": 1031,
      "ile": 1032,
      "sho": 1033,
      "gra": 1034,
      "ev": 1035,
      "match": 1036,
      "pi": 1037,
      "uti": 1038,
      "ument": 1039,
      "group": 1040,
      "map": 1041,
      "rip": 1042,
      "shape": 1043,
      "fin": 1044,
      "attr": 1045,
      "'''": 1046,
      "ep": 1047,
      "valid": 1048,
      "pla": 1049,
      "ded": 1050,
      "comm": 1051,
      "stat": 1052,
      "'.": 1053,
      "base": 1054,
      "Con": 1055,
      "ting": 1056,
      "gen": 1057,
      "params": 1058,
      "to_": 1059,
      "der": 1060,
      "ave": 1061,
      "source": 1062,
      "isinstance": 1063,
      "umn": 1064,
      "cke": 1065,
      "rec": 1066,
      "check": 1067,
      "Par": 1068,
      "inter": 1069,
      "reg": 1070,
      "au": 1071,
      "ot": 1072,
      "cation": 1073,
      "al_": 1074,
      "tar": 1075,
      "index": 1076,
      "fil": 1077,
      "uld": 1078,
      "ay": 1079,
      "sc": 1080,
      "abel": 1081,
      "Value": 1082,
      "Th": 1083,
      "ample": 1084,
      "number": 1085,
      "ameters": 1086,
      "ults": 1087,
      "quer": 1088,
      "back": 1089,
      "lename": 1090,
      "[]": 1091,
      "wor": 1092,
      "load": 1093,
      "tain": 1094,
      "lock": 1095,
      "specif": 1096,
      "column": 1097,
      "ele": 1098,
      "ref": 1099,
      "Ar": 1100,
      "ou": 1101,
      "rent": 1102,
      "ER": 1103,
      "version": 1104,
      "response": 1105,
      "ude": 1106,
      "output": 1107,
      "ml": 1108,
      "filename": 1109,
      "ry": 1110,
      "ble": 1111,
      "tp": 1112,
      "lat": 1113,
      "temp": 1114,
      "hand": 1115,
      "er_": 1116,
      "sign": 1117,
      "sor": 1118,
      "oin": 1119,
      "son": 1120,
      "ec": 1121,
      "count": 1122,
      "tra": 1123,
      "[\"": 1124,
      "work": 1125,
      "wri": 1126,
      "parse": 1127,
      "label": 1128,
      "tribu": 1129,
      "cor": 1130,
      "ask": 1131,
      "st_": 1132,
      "method": 1133,
      "ate_": 1134,
      "wn": 1135,
      "trans": 1136,
      "imp": 1137,
      "info": 1138,
      "start": 1139,
      ".\"\"\"": 1140,
      "\":": 1141,
      "ypes": 1142,
      "print": 1143,
      "rame": 1144,
      "ator": 1145,
      "item": 1146,
      "ff": 1147,
      "IN": 1148,
      "av": 1149,
      "lon": 1150,
      "gth": 1151,
      "ich": 1152,
      "tern": 1153,
      ":`": 1154,
      "state": 1155,
      "used": 1156,
      "df": 1157,
      "10": 1158,
      "This": 1159,
      "json": 1160,
      "cs": 1161,
      "nu": 1162,
      "OR": 1163,
      "ID": 1164,
      "ken": 1165,
      "uni": 1166,
      "():": 1167,
      "ir": 1168,
      "+=": 1169,
      "which": 1170,
      "filter": 1171,
      "ent_": 1172,
      "Data": 1173,
      ">>>": 1174,
      "AT": 1175,
      "mess": 1176,
      "dis": 1177,
      "No": 1178,
      "ati": 1179,
      "range": 1180,
      "Co": 1181,
      "ach": 1182,
      "Type": 1183,
      "message": 1184,
      "word": 1185,
      "ress": 1186,
      "update": 1187,
      "optional": 1188,
      "ute": 1189,
      "query": 1190,
      "dist": 1191,
      "join": 1192,
      "pl": 1193,
      "ied": 1194,
      "bin": 1195,
      "##": 1196,
      "call": 1197,
      "pass": 1198,
      "lib": 1199,
      "dire": 1200,
      "vari": 1201,
      "argument": 1202,
      "dep": 1203,
      "put_": 1204,
      "mpy": 1205,
      "_file": 1206,
      "iven": 1207,
      "ild": 1208,
      "ON": 1209,
      "sing": 1210,
      "contain": 1211,
      "_path": 1212,
      "add_": 1213,
      "exp": 1214,
      "ValueError": 1215,
      "spli": 1216,
      "cli": 1217,
      "run": 1218,
      "].": 1219,
      "bug": 1220,
      "vel": 1221,
      "is_": 1222,
      "ag": 1223,
      "env": 1224,
      "event": 1225,
      "feren": 1226,
      "ok": 1227,
      "cul": 1228,
      "em": 1229,
      "names": 1230,
      "iter": 1231,
      "ew": 1232,
      "gener": 1233,
      "length": 1234,
      "keys": 1235,
      "action": 1236,
      "only": 1237,
      "any": 1238,
      "_pro": 1239,
      "fix": 1240,
      "uple": 1241,
      "numpy": 1242,
      "ase": 1243,
      "Name": 1244,
      "items": 1245,
      "feat": 1246,
      "ori": 1247,
      "arch": 1248,
      "fir": 1249,
      "command": 1250,
      "([": 1251,
      "given": 1252,
      "qui": 1253,
      "ates": 1254,
      "ight": 1255,
      "ang": 1256,
      "debug": 1257,
      "set_": 1258,
      "token": 1259,
      "arn": 1260,
      "ding": 1261,
      "orm": 1262,
      "should": 1263,
      "_data": 1264,
      "net": 1265,
      "attribu": 1266,
      "field": 1267,
      "element": 1268,
      "ful": 1269,
      "cho": 1270,
      "sup": 1271,
      "ler": 1272,
      "lic": 1273,
      "\".": 1274,
      "pri": 1275,
      "ST": 1276,
      "open": 1277,
      "cket": 1278,
      "ations": 1279,
      "Se": 1280,
      "!=": 1281,
      "write": 1282,
      "sed": 1283,
      "point": 1284,
      "AR": 1285,
      "context": 1286,
      "input": 1287,
      "http": 1288,
      "del": 1289,
      "//": 1290,
      "remo": 1291,
      "port": 1292,
      "cls": 1293,
      "service": 1294,
      "dim": 1295,
      "ard": 1296,
      "msg": 1297,
      "sum": 1298,
      "block": 1299,
      "exist": 1300,
      "\"]": 1301,
      "dif": 1302,
      "char": 1303,
      "atch": 1304,
      "place": 1305,
      "tuple": 1306,
      "idth": 1307,
      "level": 1308,
      "options": 1309,
      "ten": 1310,
      "((": 1311,
      "ree": 1312,
      "----------": 1313,
      "results": 1314,
      "main": 1315,
      "tag": 1316,
      "order": 1317,
      "[:": 1318,
      "mis": 1319,
      "ini": 1320,
      "_key": 1321,
      "les": 1322,
      "over": 1323,
      "returns": 1324,
      "ls": 1325,
      "modu": 1326,
      "other": 1327,
      "func": 1328,
      "gr": 1329,
      "have": 1330,
      "_se": 1331,
      "host": 1332,
      "each": 1333,
      "iel": 1334,
      "frame": 1335,
      "specified": 1336,
      "desc": 1337,
      "color": 1338,
      "mi": 1339,
      "ally": 1340,
      "pack": 1341,
      "SE": 1342,
      "split": 1343,
      "view": 1344,
      "cent": 1345,
      "record": 1346,
      "gin": 1347,
      "Get": 1348,
      "RE": 1349,
      "igh": 1350,
      "ception": 1351,
      "whe": 1352,
      "ses": 1353,
      "lob": 1354,
      "parser": 1355,
      "target": 1356,
      "zer": 1357,
      "tions": 1358,
      "sr": 1359,
      "content": 1360,
      "lay": 1361,
      "raw": 1362,
      "'):": 1363,
      "To": 1364,
      "ice": 1365,
      "An": 1366,
      "import": 1367,
      "Exception": 1368,
      "late": 1369,
      "shuti": 1370,
      "_re": 1371,
      "sta": 1372,
      "thon": 1373,
      "sto": 1374,
      "bool": 1375,
      "ity": 1376,
      "act": 1377,
      "enc": 1378,
      "off": 1379,
      "first": 1380,
      "://": 1381,
      "files": 1382,
      "ryp": 1383,
      "handle": 1384,
      "tmp": 1385,
      "ints": 1386,
      "::": 1387,
      "width": 1388,
      "Args": 1389,
      "rix": 1390,
      "axis": 1391,
      "mul": 1392,
      "Lo": 1393,
      "Parameters": 1394,
      "logger": 1395,
      "extra": 1396,
      "ension": 1397,
      "lot": 1398,
      "pace": 1399,
      "DE": 1400,
      "dy": 1401,
      "())": 1402,
      "For": 1403,
      "doc": 1404,
      "diction": 1405,
      "process": 1406,
      "da": 1407,
      "ey": 1408,
      "ference": 1409,
      "output_": 1410,
      "{'": 1411,
      "Pro": 1412,
      "page": 1413,
      "nel": 1414,
      "olu": 1415,
      "norm": 1416,
      "ures": 1417,
      "ties": 1418,
      "must": 1419,
      "...": 1420,
      "p_": 1421,
      "ssion": 1422,
      "ont": 1423,
      "ject": 1424,
      "Di": 1425,
      "local": 1426,
      "ing_": 1427,
      "dic": 1428,
      "emp": 1429,
      "'],": 1430,
      "module": 1431,
      "step": 1432,
      "Un": 1433,
      "por": 1434,
      "auth": 1435,
      "ail": 1436,
      "Key": 1437,
      "graph": 1438,
      "oper": 1439,
      "=\"": 1440,
      "ence": 1441,
      "_f": 1442,
      "seri": 1443,
      "sert": 1444,
      "address": 1445,
      "server": 1446,
      "ield": 1447,
      "ME": 1448,
      "ant": 1449,
      "20": 1450,
      "device": 1451,
      "go": 1452,
      "new_": 1453,
      "fields": 1454,
      "ctory": 1455,
      "---": 1456,
      "conne": 1457,
      "header": 1458,
      "Ad": 1459,
      "rap": 1460,
      "current": 1461,
      "its": 1462,
      "hel": 1463,
      "rig": 1464,
      "tit": 1465,
      "g_": 1466,
      "lines": 1467,
      "clude": 1468,
      "UR": 1469,
      "Hand": 1470,
      "sition": 1471,
      "glob": 1472,
      "n_": 1473,
      "sure": 1474,
      "aliz": 1475,
      "conver": 1476,
      "ual": 1477,
      "nd": 1478,
      "mask": 1479,
      "cm": 1480,
      "ource": 1481,
      "_get_": 1482,
      "ctypes": 1483,
      "api": 1484,
      "timeout": 1485,
      "ory": 1486,
      "geo": 1487,
      "[-": 1488,
      "pub": 1489,
      "from_": 1490,
      "matrix": 1491,
      "stru": 1492,
      "ub": 1493,
      "status": 1494,
      "found": 1495,
      "unk": 1496,
      "][": 1497,
      "lu": 1498,
      "ft": 1499,
      "LE": 1500,
      "ak": 1501,
      "ear": 1502,
      "rel": 1503,
      "FF": 1504,
      "'])": 1505,
      "mon": 1506,
      "12": 1507,
      "lim": 1508,
      "dition": 1509,
      "_dict": 1510,
      "identi": 1511,
      "variable": 1512,
      "store": 1513,
      "session": 1514,
      "pop": 1515,
      "Mo": 1516,
      "box": 1517,
      "mb": 1518,
      "using": 1519,
      "top": 1520,
      "List": 1521,
      "T_": 1522,
      "parameters": 1523,
      "multi": 1524,
      "ast": 1525,
      "_po": 1526,
      "orig": 1527,
      "clo": 1528,
      "into": 1529,
      "rand": 1530,
      "when": 1531,
      "xy": 1532,
      "location": 1533,
      "dtype": 1534,
      "mean": 1535,
      "====": 1536,
      "ies": 1537,
      "LO": 1538,
      "fol": 1539,
      "ream": 1540,
      "AL": 1541,
      "requi": 1542,
      "num_": 1543,
      "m_": 1544,
      "headers": 1545,
      "job": 1546,
      "hash": 1547,
      "af": 1548,
      "package": 1549,
      "ating": 1550,
      "mag": 1551,
      "sty": 1552,
      "create": 1553,
      "nodes": 1554,
      "cell": 1555,
      "ron": 1556,
      "wo": 1557,
      "child": 1558,
      "inte": 1559,
      "100": 1560,
      "network": 1561,
      "lam": 1562,
      "warn": 1563,
      "led": 1564,
      "St": 1565,
      "_list": 1566,
      "strip": 1567,
      "amples": 1568,
      "bytes": 1569,
      "En": 1570,
      "it_": 1571,
      "0x": 1572,
      "region": 1573,
      "cate": 1574,
      "copy": 1575,
      "tive": 1576,
      "ind": 1577,
      "replace": 1578,
      "points": 1579,
      "itude": 1580,
      "wa": 1581,
      "Ch": 1582,
      "ili": 1583,
      "ative": 1584,
      "fore": 1585,
      "mar": 1586,
      "objects": 1587,
      "but": 1588,
      "tf": 1589,
      "parameter": 1590,
      "attern": 1591,
      "-------": 1592,
      "alize": 1593,
      "Cre": 1594,
      "cle": 1595,
      "dow": 1596,
      "then": 1597,
      "provi": 1598,
      "fra": 1599,
      "idx": 1600,
      "ments": 1601,
      "ML": 1602,
      "title": 1603,
      "presen": 1604,
      "datetime": 1605,
      "math": 1606,
      "setting": 1607,
      "allow": 1608,
      "l_": 1609,
      "().": 1610,
      "Res": 1611,
      "AP": 1612,
      "ime": 1613,
      "indow": 1614,
      ")))": 1615,
      "make": 1616,
      "html": 1617,
      "clas": 1618,
      "columns": 1619,
      "ult_": 1620,
      "pos": 1621,
      "rows": 1622,
      "coord": 1623,
      "Set": 1624,
      "curren": 1625,
      "Id": 1626,
      "scal": 1627,
      "stream": 1628,
      "_b": 1629,
      "defin": 1630,
      "dictionary": 1631,
      "Py": 1632,
      "exec": 1633,
      "ule": 1634,
      "where": 1635,
      "_pre": 1636,
      "sys": 1637,
      "section": 1638,
      "ted_": 1639,
      "ess": 1640,
      "day": 1641,
      "left": 1642,
      "cache": 1643,
      "dele": 1644,
      "man": 1645,
      "lower": 1646,
      "plot": 1647,
      "lamb": 1648,
      "calcul": 1649,
      "contin": 1650,
      "random": 1651,
      "our": 1652,
      "like": 1653,
      "attributes": 1654,
      "32": 1655,
      "ription": 1656,
      "year": 1657,
      "`.": 1658,
      "last": 1659,
      "termin": 1660,
      "search": 1661,
      "Che": 1662,
      "_t": 1663,
      "pol": 1664,
      "vals": 1665,
      "_url": 1666,
      "ctx": 1667,
      "body": 1668,
      "fn": 1669,
      "dest": 1670,
      "hol": 1671,
      "seg": 1672,
      "secon": 1673,
      "tot": 1674,
      "ker": 1675,
      "den": 1676,
      "pli": 1677,
      "directory": 1678,
      "_to_": 1679,
      "const": 1680,
      "ature": 1681,
      "stypes": 1682,
      "change": 1683,
      "(),": 1684,
      "Op": 1685,
      "non": 1686,
      "comple": 1687,
      "does": 1688,
      "lection": 1689,
      "style": 1690,
      "edge": 1691,
      "same": 1692,
      "find": 1693,
      "rup": 1694,
      "chan": 1695,
      "vo": 1696,
      "})": 1697,
      "right": 1698,
      "origin": 1699,
      "max_": 1700,
      "assert": 1701,
      "16": 1702,
      "yield": 1703,
      "_info": 1704,
      "remove": 1705,
      "domain": 1706,
      "cer": 1707,
      "olume": 1708,
      "TE": 1709,
      "root": 1710,
      "lambda": 1711,
      "ents": 1712,
      "arguments": 1713,
      "vis": 1714,
      "wrap": 1715,
      "ret": 1716,
      "db": 1717,
      "CO": 1718,
      "depth": 1719,
      "std": 1720,
      "unit": 1721,
      "tail": 1722,
      "ndarray": 1723,
      "zone": 1724,
      "site": 1725,
      "xel": 1726,
      "adata": 1727,
      "gh": 1728,
      ")]": 1729,
      "side": 1730,
      "est": 1731,
      "At": 1732,
      "uration": 1733,
      "SS": 1734,
      "template": 1735,
      "parti": 1736,
      "Cal": 1737,
      "shutit_": 1738,
      "Col": 1739,
      "ging": 1740,
      "distance": 1741,
      "URL": 1742,
      "mem": 1743,
      "client": 1744,
      "prefix": 1745,
      "returned": 1746,
      "empty": 1747,
      "->": 1748,
      "met": 1749,
      "curity": 1750,
      "ran": 1751,
      "verbo": 1752,
      "stem": 1753,
      "feature": 1754,
      "help": 1755,
      "ation_": 1756,
      "labels": 1757,
      "ping": 1758,
      "zip": 1759,
      "src": 1760,
      "chunk": 1761,
      "reference": 1762,
      "ef": 1763,
      "]:": 1764,
      "sets": 1765,
      "_per": 1766,
      "sche": 1767,
      "exists": 1768,
      "continue": 1769,
      "save": 1770,
      "cted": 1771,
      "ids": 1772,
      "vs": 1773,
      "Time": 1774,
      "vector": 1775,
      "als": 1776,
      "enum": 1777,
      "_size": 1778,
      "####": 1779,
      "<=": 1780,
      "na": 1781,
      "link": 1782,
      "face": 1783,
      "transform": 1784,
      "long": 1785,
      "Po": 1786,
      "struct": 1787,
      "Check": 1788,
      "offset": 1789,
      "25": 1790,
      "yn": 1791,
      "File": 1792,
      ".')": 1793,
      "just": 1794,
      "bet": 1795,
      "sq": 1796,
      "io": 1797,
      "Ser": 1798,
      "Comp": 1799,
      "fla": 1800,
      "utils": 1801,
      "initi": 1802,
      "metadata": 1803,
      "resource": 1804,
      "x_": 1805,
      "ed_": 1806,
      "ive": 1807,
      "train": 1808,
      "wait": 1809,
      "encode": 1810,
      "pect": 1811,
      "'\\": 1812,
      "ize": 1813,
      "PAR": 1814,
      "Defa": 1815,
      "EN": 1816,
      "test": 1817,
      "imum": 1818,
      "TI": 1819,
      "dimension": 1820,
      "you": 1821,
      "ffer": 1822,
      "indi": 1823,
      "down": 1824,
      "mbol": 1825,
      "metry": 1826,
      "coding": 1827,
      "ect_": 1828,
      "11": 1829,
      "ead": 1830,
      "task": 1831,
      "Str": 1832,
      "send": 1833,
      "encryp": 1834,
      "description": 1835,
      "entry": 1836,
      "weigh": 1837,
      "features": 1838,
      "attribute": 1839,
      "while": 1840,
      "avail": 1841,
      "rt": 1842,
      "iled": 1843,
      "oc": 1844,
      "radi": 1845,
      "sele": 1846,
      "pk": 1847,
      "tensor": 1848,
      "'].": 1849,
      "note": 1850,
      "gori": 1851,
      "err": 1852,
      "pattern": 1853,
      "Add": 1854,
      "ility": 1855,
      "ous": 1856,
      "_dir": 1857,
      "look": 1858,
      "ish": 1859,
      "ccess": 1860,
      "include": 1861,
      "identifi": 1862,
      "30": 1863,
      "99": 1864,
      "']['": 1865,
      "proper": 1866,
      "ine": 1867,
      "there": 1868,
      ">=": 1869,
      "']:": 1870,
      "was": 1871,
      "core": 1872,
      "spice": 1873,
      "verbose": 1874,
      "full": 1875,
      "IP": 1876,
      "unt": 1877,
      "depend": 1878,
      "az": 1879,
      "mary": 1880,
      "center": 1881,
      "E_": 1882,
      "window": 1883,
      "sity": 1884,
      "more": 1885,
      "rho": 1886,
      "now": 1887,
      "need": 1888,
      "reak": 1889,
      "64": 1890,
      "provided": 1891,
      "volume": 1892,
      "_value": 1893,
      "'))": 1894,
      "int_": 1895,
      "represen": 1896,
      "abs": 1897,
      "buil": 1898,
      "rtype": 1899,
      "settings": 1900,
      "cat": 1901,
      "delete": 1902,
      "sa": 1903,
      "ct_": 1904,
      "true": 1905,
      "opt": 1906,
      "flow": 1907,
      "appli": 1908,
      "space": 1909,
      "hist": 1910,
      "pas": 1911,
      "angle": 1912,
      "og": 1913,
      "play": 1914,
      "Calcul": 1915,
      "ell": 1916,
      "logging": 1917,
      ")):": 1918,
      "alph": 1919,
      "erate": 1920,
      "month": 1921,
      "ify": 1922,
      "warning": 1923,
      "wise": 1924,
      "viron": 1925,
      "AN": 1926,
      "_r": 1927,
      "sli": 1928,
      "suppor": 1929,
      ":]": 1930,
      "DO": 1931,
      "mail": 1932,
      "than": 1933,
      "ween": 1934,
      "Al": 1935,
      "before": 1936,
      "missing": 1937,
      "containing": 1938,
      "ill": 1939,
      "sk": 1940,
      "byte": 1941,
      "between": 1942,
      "sin": 1943,
      "types": 1944,
      "Handler": 1945,
      "two": 1946,
      "igno": 1947,
      "(*": 1948,
      "metri": 1949,
      "vid": 1950,
      "tach": 1951,
      "case": 1952,
      "single": 1953,
      "term": 1954,
      "ready": 1955,
      "cmd": 1956,
      "available": 1957,
      "serv": 1958,
      "bound": 1959,
      "after": 1960,
      "dataset": 1961,
      "D_": 1962,
      "}{": 1963,
      "ression": 1964,
      "flu": 1965,
      "altern": 1966,
      "expec": 1967,
      "'),": 1968,
      "parse_": 1969,
      "height": 1970,
      "current_": 1971,
      "gram": 1972,
      "decl": 1973,
      "build": 1974,
      "RO": 1975,
      "eval": 1976,
      "vices": 1977,
      "system": 1978,
      "tags": 1979,
      "Qu": 1980,
      "_g": 1981,
      "ped": 1982,
      "show": 1983,
      "zero": 1984,
      "200": 1985,
      "start_": 1986,
      "see": 1987,
      "_port": 1988,
      "limit": 1989,
      "loc": 1990,
      "python": 1991,
      "access": 1992,
      "FI": 1993,
      "stop": 1994,
      "clust": 1995,
      "'%": 1996,
      "password": 1997,
      "Python": 1998,
      "formation": 1999,
      "ical": 2000,
      "lease": 2001,
      "default_": 2002,
      "_d": 2003,
      "Frame": 2004,
      "S_": 2005,
      "fit": 2006,
      "Create": 2007,
      ".,": 2008,
      "rop": 2009,
      "proj": 2010,
      "check_": 2011,
      "stack": 2012,
      "break": 2013,
      "exc": 2014,
      "_index": 2015,
      "meta": 2016,
      "We": 2017,
      "environ": 2018,
      "field_": 2019,
      "username": 2020,
      "id_": 2021,
      "quence": 2022,
      "istr": 2023,
      "pipe": 2024,
      "elements": 2025,
      "upper": 2026,
      "force": 2027,
      "weights": 2028,
      "all_": 2029,
      "passed": 2030,
      "parent": 2031,
      "success": 2032,
      "docs": 2033,
      "[:,": 2034,
      "rou": 2035,
      "AC": 2036,
      "Note": 2037,
      "tool": 2038,
      "follow": 2039,
      "API": 2040,
      "frac": 2041,
      "defined": 2042,
      "may": 2043,
      "handler": 2044,
      "15": 2045,
      "naif": 2046,
      "fici": 2047,
      "close": 2048,
      "ign": 2049,
      "nown": 2050,
      "getattr": 2051,
      "LOG": 2052,
      "encoding": 2053,
      "Bo": 2054,
      "tt": 2055,
      "mission": 2056,
      "operation": 2057,
      "\"<": 2058,
      "charact": 2059,
      "packet": 2060,
      "decode": 2061,
      "been": 2062,
      "required": 2063,
      "TO": 2064,
      "TP": 2065,
      "_C": 2066,
      "alpha": 2067,
      "gan": 2068,
      "ps": 2069,
      "units": 2070,
      "SI": 2071,
      "v_": 2072,
      "starts": 2073,
      "Ap": 2074,
      "ei": 2075,
      "User": 2076,
      "ys": 2077,
      "posi": 2078,
      "buffer": 2079,
      "mu": 2080,
      "dou": 2081,
      "unique": 2082,
      "stand": 2083,
      "auto": 2084,
      "Do": 2085,
      "ager": 2086,
      "14": 2087,
      "next": 2088,
      "channel": 2089,
      "mt": 2090,
      "post": 2091,
      "ustom": 2092,
      "Me": 2093,
      "\\\\": 2094,
      ">\"": 2095,
      "exception": 2096,
      "coordin": 2097,
      "total": 2098,
      "rect": 2099,
      "ors": 2100,
      "_con": 2101,
      "hy": 2102,
      "position": 2103,
      "UL": 2104,
      "font": 2105,
      "https": 2106,
      "AS": 2107,
      "xy_": 2108,
      "]]": 2109,
      "UN": 2110,
      "way": 2111,
      "ake": 2112,
      "echo": 2113,
      "See": 2114,
      "gorith": 2115,
      "medi": 2116,
      "Num": 2117,
      "lean": 2118,
      "information": 2119,
      "Model": 2120,
      "It": 2121,
      "Ob": 2122,
      "IC": 2123,
      "strings": 2124,
      "NO": 2125,
      "AD": 2126,
      "contro": 2127,
      "based": 2128,
      "groups": 2129,
      "pair": 2130,
      "double": 2131,
      "gre": 2132,
      "numer": 2133,
      "equ": 2134,
      "bar": 2135,
      "_h": 2136,
      "ple": 2137,
      "global": 2138,
      "fail": 2139,
      "ATOR": 2140,
      "specific": 2141,
      "geometry": 2142,
      "file_": 2143,
      "nv": 2144,
      "ground": 2145,
      "18": 2146,
      "ript": 2147,
      "prob": 2148,
      "account": 2149,
      "mesh": 2150,
      "also": 2151,
      "*(": 2152,
      "sole": 2153,
      "``.": 2154,
      "symbol": 2155,
      "ud": 2156,
      "sible": 2157,
      "pixel": 2158,
      "alized": 2159,
      "Not": 2160,
      "Or": 2161,
      "coef": 2162,
      "syn": 2163,
      "mapping": 2164,
      "class_": 2165,
      "compute": 2166,
      "batch": 2167,
      "add_argument": 2168,
      "sm": 2169,
      "orage": 2170,
      "lista": 2171,
      "integer": 2172,
      "stats": 2173,
      "curityHandler": 2174,
      "cryp": 2175,
      "19": 2176,
      "ning": 2177,
      "stri": 2178,
      "very": 2179,
      "connection": 2180,
      "Bu": 2181,
      "neur": 2182,
      "errors": 2183,
      "ERR": 2184,
      "Ge": 2185,
      "some": 2186,
      "compon": 2187,
      ".\"": 2188,
      "PO": 2189,
      "urname": 2190,
      "Array": 2191,
      "factor": 2192,
      "diff": 2193,
      "`,": 2194,
      "gorithm": 2195,
      "stamp": 2196,
      "ull": 2197,
      "sim": 2198,
      "ain": 2199,
      "collection": 2200,
      "create_": 2201,
      "schema": 2202,
      "nvml": 2203,
      "loss": 2204,
      "already": 2205,
      "ked": 2206,
      "hasattr": 2207,
      "40": 2208,
      "dr": 2209,
      "\"%": 2210,
      "tifi": 2211,
      "sorted": 2212,
      "pay": 2213,
      "HT": 2214,
      "identifier": 2215,
      "enumerate": 2216,
      "dev": 2217,
      "_ids": 2218,
      "surname": 2219,
      "detail": 2220,
      "_types": 2221,
      "input_": 2222,
      "SON": 2223,
      "tree": 2224,
      "end_": 2225,
      "source_": 2226,
      "SEPAR": 2227,
      "fg": 2228,
      "SEPARATOR": 2229,
      "resol": 2230,
      "configuration": 2231,
      "iz": 2232,
      "keyword": 2233,
      "relation": 2234,
      "sample": 2235,
      "sigma": 2236,
      "delta": 2237,
      "proxy": 2238,
      "By": 2239,
      "email": 2240,
      "sort": 2241,
      "cing": 2242,
      "hour": 2243,
      "vars": 2244,
      "ves": 2245,
      "red_": 2246,
      "c_int": 2247,
      "rough": 2248,
      "expected": 2249,
      "DataFrame": 2250,
      "application": 2251,
      "Run": 2252,
      "loop": 2253,
      "forum": 2254,
      "rule": 2255,
      "Ra": 2256,
      "String": 2257,
      "ns": 2258,
      "pd": 2259,
      "med": 2260,
      "UT": 2261,
      "cy": 2262,
      "mer": 2263,
      "},": 2264,
      "Reg": 2265,
      "JSON": 2266,
      "TypeError": 2267,
      "records": 2268,
      "attach": 2269,
      "part": 2270,
      "_config": 2271,
      "vent": 2272,
      "example": 2273,
      "ack": 2274,
      "ort_": 2275,
      "asyn": 2276,
      "Attribu": 2277,
      "FA": 2278,
      "indices": 2279,
      "ignore": 2280,
      "ness": 2281,
      "observ": 2282,
      "(['": 2283,
      "ound": 2284,
      "tran": 2285,
      "weight": 2286,
      "correspon": 2287,
      "events": 2288,
      "supported": 2289,
      "Ver": 2290,
      "req": 2291,
      "Option": 2292,
      "sco": 2293,
      "thing": 2294,
      "direct": 2295,
      "s_to_": 2296,
      "60": 2297,
      "document": 2298,
      "ling": 2299,
      "33": 2300,
      "dt": 2301,
      "spa": 2302,
      "ane": 2303,
      "data_": 2304,
      "byref": 2305,
      "xy_url": 2306,
      "model_": 2307,
      "dump": 2308,
      ".\")": 2309,
      "NV": 2310,
      "queue": 2311,
      "extension": 2312,
      "Table": 2313,
      "a_": 2314,
      "startswith": 2315,
      "anal": 2316,
      "utf": 2317,
      "ERROR": 2318,
      "regist": 2319,
      "scale": 2320,
      "uth": 2321,
      "Gen": 2322,
      "Image": 2323,
      "beta": 2324,
      "clu": 2325,
      "axes": 2326,
      "gandi": 2327,
      "Config": 2328,
      "ched": 2329,
      "attrs": 2330,
      "Lay": 2331,
      "des": 2332,
      "condition": 2333,
      "verse": 2334,
      "olean": 2335,
      "rl": 2336,
      "ner": 2337,
      "in_": 2338,
      "or_": 2339,
      "'][": 2340,
      "seconds": 2341,
      "fname": 2342,
      "ular": 2343,
      "gine": 2344,
      "project": 2345,
      "created": 2346,
      "whether": 2347,
      "ranch": 2348,
      "xml": 2349,
      "cap": 2350,
      "ment_": 2351,
      "Default": 2352,
      "MP": 2353,
      "conf": 2354,
      "cord": 2355,
      "gex": 2356,
      "cause": 2357,
      "bins": 2358,
      "shutit": 2359,
      "socket": 2360,
      "lookup": 2361,
      "Conver": 2362,
      "extend": 2363,
      "ries": 2364,
      "NVML": 2365,
      "0000": 2366,
      "NA": 2367,
      "determin": 2368,
      "dat": 2369,
      "Path": 2370,
      "addr": 2371,
      "remote": 2372,
      "========": 2373,
      "defaults": 2374,
      "metho": 2375,
      "ferences": 2376,
      "sive": 2377,
      "tz": 2378,
      "target_": 2379,
      "slice": 2380,
      "algorithm": 2381,
      "here": 2382,
      "ters": 2383,
      "ics": 2384,
      "ved": 2385,
      "On": 2386,
      "Up": 2387,
      "signal": 2388,
      "ic_": 2389,
      "Fa": 2390,
      "Per": 2391,
      "Vect": 2392,
      "sequence": 2393,
      "conv": 2394,
      "_names": 2395,
      "13": 2396,
      "men": 2397,
      "images": 2398,
      "_col": 2399,
      "failed": 2400,
      "timestamp": 2401,
      "out_": 2402,
      "zeros": 2403,
      "Char": 2404,
      "min_": 2405,
      "custom": 2406,
      "peri": 2407,
      "ster": 2408,
      "prec": 2409,
      "Vector": 2410,
      "unicode": 2411,
      "DI": 2412,
      "rate": 2413,
      "bi": 2414,
      "Dict": 2415,
      "categ": 2416,
      "]))": 2417,
      "redge": 2418,
      "yperedge": 2419,
      "storage": 2420,
      "SM": 2421,
      "Size": 2422,
      "fd": 2423,
      "org": 2424,
      "thres": 2425,
      "{}'.": 2426,
      "Invalid": 2427,
      "Ele": 2428,
      "Use": 2429,
      "callback": 2430,
      "my": 2431,
      "either": 2432,
      "Read": 2433,
      "imt": 2434,
      "on_": 2435,
      "andas": 2436,
      "being": 2437,
      "ING": 2438,
      "_table": 2439,
      "asso": 2440,
      "mark": 2441,
      "signature": 2442,
      "sur": 2443,
      "ery": 2444,
      "Can": 2445,
      "mod": 2446,
      "registr": 2447,
      "sol": 2448,
      "ong": 2449,
      "text_": 2450,
      "ency": 2451,
      "separ": 2452,
      "plt": 2453,
      "contents": 2454,
      "24": 2455,
      "ressure": 2456,
      "clean": 2457,
      "second": 2458,
      "Cont": 2459,
      ")[": 2460,
      "who": 2461,
      "appro": 2462,
      "unds": 2463,
      "ache": 2464,
      "atio": 2465,
      "direction": 2466,
      "Text": 2467,
      "]):": 2468,
      "v1": 2469,
      "Trans": 2470,
      "arr": 2471,
      "ability": 2472,
      "trace": 2473,
      "Geo": 2474,
      "oriz": 2475,
      "execute": 2476,
      "Object": 2477,
      "_token": 2478,
      "redenti": 2479,
      "Len": 2480,
      "}\\": 2481,
      "hold": 2482,
      "details": 2483,
      "maximum": 2484,
      "matches": 2485,
      "Attribute": 2486,
      "]['": 2487,
      "NVML_": 2488,
      "added": 2489,
      "event_": 2490,
      "2D": 2491,
      "multiple": 2492,
      "anti": 2493,
      "layer": 2494,
      "disable": 2495,
      "lish": 2496,
      "ture": 2497,
      "Examples": 2498,
      "90": 2499,
      "GE": 2500,
      "modif": 2501,
      "interval": 2502,
      "cover": 2503,
      "move": 2504,
      "background": 2505,
      "patch": 2506,
      "enable": 2507,
      "keep": 2508,
      "services": 2509,
      "TY": 2510,
      "sn": 2511,
      "oft": 2512,
      "requests": 2513,
      "otherwise": 2514,
      "ives": 2515,
      "pect_": 2516,
      "50": 2517,
      "Fun": 2518,
      "Inp": 2519,
      "Input": 2520,
      "stder": 2521,
      "stderr": 2522,
      "cluster": 2523,
      "ek": 2524,
      "display": 2525,
      "uri": 2526,
      "nest": 2527,
      "img": 2528,
      "SU": 2529,
      "__name": 2530,
      "ision": 2531,
      "convert": 2532,
      "entity": 2533,
      "pex": 2534,
      "_string": 2535,
      "hyperedge": 2536,
      "instead": 2537,
      "leg": 2538,
      "uture": 2539,
      "Device": 2540,
      "cked": 2541,
      "eded": 2542,
      "ends": 2543,
      "payload": 2544,
      "uid": 2545,
      "}'.": 2546,
      "previ": 2547,
      "alternative": 2548,
      "f_": 2549,
      "namespace": 2550,
      "standard": 2551,
      "Sh": 2552,
      "lip": 2553,
      "Ac": 2554,
      "wer": 2555,
      "invalid": 2556,
      "hostname": 2557,
      "dict_": 2558,
      "children": 2559,
      "coeffici": 2560,
      "TR": 2561,
      "segment": 2562,
      "lan": 2563,
      "variables": 2564,
      "known": 2565,
      "branch": 2566,
      "tation": 2567,
      "inf": 2568,
      "filters": 2569,
      "__name__": 2570,
      "md": 2571,
      "apply": 2572,
      "evalu": 2573,
      "Query": 2574,
      "hex": 2575,
      "dered": 2576,
      "]*": 2577,
      "gest": 2578,
      "query_": 2579,
      "thread": 2580,
      "called": 2581,
      "Base": 2582,
      "series": 2583,
      "Number": 2584,
      "ending": 2585,
      "parts": 2586,
      "MA": 2587,
      "generate": 2588,
      "following": 2589,
      "cos": 2590,
      "mas": 2591,
      "old": 2592,
      "under": 2593,
      "popul": 2594,
      "cro": 2595,
      "ash": 2596,
      "IO": 2597,
      "own": 2598,
      "Handle": 2599,
      "global_": 2600,
      "folder": 2601,
      "skip": 2602,
      "area": 2603,
      "forms": 2604,
      "-----": 2605,
      "build_": 2606,
      "(**": 2607,
      "log_": 2608,
      "histo": 2609,
      "'/": 2610,
      "edges": 2611,
      "recur": 2612,
      "todo": 2613,
      "assign": 2614,
      "exclude": 2615,
      "produ": 2616,
      "estim": 2617,
      "partition": 2618,
      "neurite": 2619,
      "BU": 2620,
      "ww": 2621,
      "Respon": 2622,
      "exit": 2623,
      "ins": 2624,
      "six": 2625,
      "common": 2626,
      "original": 2627,
      "IL": 2628,
      "let": 2629,
      "_str": 2630,
      "resh": 2631,
      "'--": 2632,
      "17": 2633,
      "80": 2634,
      "v2": 2635,
      "less": 2636,
      "Info": 2637,
      "Raise": 2638,
      "oq": 2639,
      "TODO": 2640,
      "cfg": 2641,
      "buf": 2642,
      "').": 2643,
      "boolean": 2644,
      "complete": 2645,
      "addition": 2646,
      "priv": 2647,
      "ose": 2648,
      "dout": 2649,
      "_call": 2650,
      "sql": 2651,
      "rid": 2652,
      "possible": 2653,
      "pexpect_": 2654,
      "bed": 2655,
      "ically": 2656,
      "Response": 2657,
      "alias": 2658,
      "encryption": 2659,
      "NAME": 2660,
      "console": 2661,
      "find_": 2662,
      "Cl": 2663,
      "cr": 2664,
      "content_": 2665,
      "ysis": 2666,
      "LI": 2667,
      "_inter": 2668,
      "Optional": 2669,
      "ribu": 2670,
      "ferent": 2671,
      "Dis": 2672,
      "Fe": 2673,
      "models": 2674,
      "sec": 2675,
      "%(": 2676,
      "Com": 2677,
      "Net": 2678,
      "active": 2679,
      "flags": 2680,
      "sour": 2681,
      "and_": 2682,
      "ared": 2683,
      "Index": 2684,
      "binary": 2685,
      "object_": 2686,
      "'-": 2687,
      "sources": 2688,
      "gets": 2689,
      "EC": 2690,
      "ndim": 2691,
      "stdout": 2692,
      "umb": 2693,
      ")),": 2694,
      "dot": 2695,
      "properties": 2696,
      "character": 2697,
      "_time": 2698,
      "_count": 2699,
      "nitude": 2700,
      "messages": 2701,
      "memory": 2702,
      "classes": 2703,
      "associ": 2704,
      "\"):": 2705,
      "sci": 2706,
      "dicom": 2707,
      "exceptions": 2708,
      "tokens": 2709,
      "Dou": 2710,
      "SP": 2711,
      "alog": 2712,
      "entries": 2713,
      "(-": 2714,
      "{\"": 2715,
      "them": 2716,
      "FFFF": 2717,
      "kernel": 2718,
      "member": 2719,
      "_de": 2720,
      "ith": 2721,
      "}}": 2722,
      "raises": 2723,
      "_check": 2724,
      "last_": 2725,
      "----------------": 2726,
      "contains": 2727,
      "super": 2728,
      "22": 2729,
      "pandas": 2730,
      "your": 2731,
      "retri": 2732,
      "fill": 2733,
      "coordinates": 2734,
      "endpoint": 2735,
      "bounds": 2736,
      "subprocess": 2737,
      "web": 2738,
      "Double": 2739,
      "Wri": 2740,
      "design": 2741,
      "mes": 2742,
      "quo": 2743,
      "eff": 2744,
      "tch": 2745,
      "``,": 2746,
      "All": 2747,
      "imple": 2748,
      "Node": 2749,
      "click": 2750,
      "different": 2751,
      "Event": 2752,
      "functions": 2753,
      "(\\": 2754,
      "Gro": 2755,
      "draw": 2756,
      "running": 2757,
      "Date": 2758,
      "engine": 2759,
      "dataframe": 2760,
      "proces": 2761,
      "operator": 2762,
      "Sub": 2763,
      "container": 2764,
      "merge": 2765,
      "Tra": 2766,
      "sites": 2767,
      "tocol": 2768,
      "load_": 2769,
      "methods": 2770,
      "CH": 2771,
      "edi": 2772,
      "ide": 2773,
      "tx": 2774,
      "ERROR_": 2775,
      "_params": 2776,
      "align": 2777,
      "Valid": 2778,
      "KeyError": 2779,
      "_get": 2780,
      "fmt": 2781,
      "lap": 2782,
      "key_": 2783,
      "Request": 2784,
      "summary": 2785,
      "eve": 2786,
      "distribu": 2787,
      "every": 2788,
      "ination": 2789,
      "_cre": 2790,
      "grid": 2791,
      "big": 2792,
      "corresponding": 2793,
      "Ite": 2794,
      "amp": 2795,
      "paren": 2796,
      "sqrt": 2797,
      "Pre": 2798,
      "poly": 2799,
      "ply": 2800,
      "they": 2801,
      "for_": 2802,
      "ToChar": 2803,
      "expression": 2804,
      "Font": 2805,
      "install": 2806,
      "Raises": 2807,
      "AM": 2808,
      "plu": 2809,
      "Load": 2810,
      "Format": 2811,
      "manager": 2812,
      "Convert": 2813,
      "line_": 2814,
      "iti": 2815,
      "tor": 2816,
      "didate": 2817,
      "{}\".": 2818,
      "backend": 2819,
      "t_id": 2820,
      "such": 2821,
      "permission": 2822,
      "redu": 2823,
      "commands": 2824,
      "Over": 2825,
      "suf": 2826,
      "olution": 2827,
      "conn": 2828,
      "cept": 2829,
      "ware": 2830,
      "disk": 2831,
      "GP": 2832,
      "ix": 2833,
      "s_dict": 2834,
      "Element": 2835,
      "_context": 2836,
      "limi": 2837,
      "TER": 2838,
      "templ": 2839,
      "\"/": 2840,
      "lang": 2841,
      "retry": 2842,
      "both": 2843,
      "csv": 2844,
      "convert_": 2845,
      "topic": 2846,
      "ssh": 2847,
      "Stat": 2848,
      "','": 2849,
      "city": 2850,
      "correct": 2851,
      "redentials": 2852,
      "45": 2853,
      "bit": 2854,
      "us_": 2855,
      "async": 2856,
      "Iter": 2857,
      "gov": 2858,
      "/(": 2859,
      "bucket": 2860,
      "render": 2861,
      "plied": 2862,
      "Defaults": 2863,
      "bs": 2864,
      "kind": 2865,
      "times": 2866,
      "libspice": 2867,
      "_filter": 2868,
      "regex": 2869,
      "take": 2870,
      "Call": 2871,
      "Spec": 2872,
      "_2": 2873,
      "stringToChar": 2874,
      "Layer": 2875,
      "plugin": 2876,
      "stringToCharP": 2877,
      "({": 2878,
      "high": 2879,
      "return_": 2880,
      "Fil": 2881,
      "ld": 2882,
      "adding": 2883,
      "nas": 2884,
      "neg": 2885,
      "comment": 2886,
      "initial": 2887,
      "VAL": 2888,
      "Wh": 2889,
      "_args": 2890,
      "nail": 2891,
      "inclu": 2892,
      "their": 2893,
      "_prefix": 2894,
      "umbnail": 2895,
      "Ro": 2896,
      "defini": 2897,
      "NVML_ERROR_": 2898,
      "b_": 2899,
      "kit_": 2900,
      "ules": 2901,
      "obs": 2902,
      "[-]": 2903,
      "rag": 2904,
      "deriv": 2905,
      "Mess": 2906,
      "_P": 2907,
      "wrapper": 2908,
      "'{": 2909,
      "null": 2910,
      "ES": 2911,
      "alization": 2912,
      "########": 2913,
      "dst": 2914,
      "metric": 2915,
      "needed": 2916,
      "generator": 2917,
      "pad": 2918,
      "through": 2919,
      "profile": 2920,
      "within": 2921,
      "flag": 2922,
      "bers": 2923,
      "want": 2924,
      "lyph": 2925,
      "how": 2926,
      "Message": 2927,
      "Field": 2928,
      "creen": 2929,
      "_from_": 2930,
      "oid": 2931,
      "begin": 2932,
      "Arg": 2933,
      ":`~": 2934,
      "environment": 2935,
      "\"\\": 2936,
      "done": 2937,
      "Inter": 2938,
      "specify": 2939,
      "CON": 2940,
      "git": 2941,
      "bot": 2942,
      "floats": 2943,
      "authenti": 2944,
      "AB": 2945,
      "]),": 2946,
      "tom": 2947,
      "nasa": 2948,
      "cspice": 2949,
      "jpl": 2950,
      "intern": 2951,
      "Notes": 2952,
      "toolkit_": 2953,
      "HTTP": 2954,
      "toolkit_docs": 2955,
      "ater": 2956,
      "tical": 2957,
      "latitude": 2958,
      "ick": 2959,
      "indic": 2960,
      "atives": 2961,
      "role": 2962,
      "by_": 2963,
      "validate": 2964,
      "threshold": 2965,
      "So": 2966,
      "_version": 2967,
      "gon": 2968,
      "price": 2969,
      ")**": 2970,
      "type_": 2971,
      "choice": 2972,
      "init_": 2973,
      "await": 2974,
      "utili": 2975,
      "integr": 2976,
      "ogle": 2977,
      "sist": 2978,
      "combin": 2979,
      "analysis": 2980,
      "c_double": 2981,
      "base_": 2982,
      "script": 2983,
      "public": 2984,
      "Mode": 2985,
      "associated": 2986,
      "=(": 2987,
      "ib": 2988,
      "real": 2989,
      "libr": 2990,
      "ants": 2991,
      "database": 2992,
      "existing": 2993,
      "_presen": 2994,
      "Group": 2995,
      "don": 2996,
      "ipe": 2997,
      "report": 2998,
      "reverse": 2999,
      "array_": 3000,
      "accoun": 3001,
      "fully": 3002,
      "components": 3003,
      "_cache": 3004,
      "without": 3005,
      "pur": 3006,
      "ection": 3007,
      "prog": 3008,
      "CS": 3009,
      "Man": 3010,
      "fs": 3011,
      "ensure": 3012,
      "declar": 3013,
      "Argument": 3014,
      "Pa": 3015,
      "ier": 3016,
      "Count": 3017,
      "normal": 3018,
      "cies": 3019,
      "project_": 3020,
      "X_": 3021,
      "aded": 3022,
      "rc": 3023,
      "ext_": 3024,
      "magnitude": 3025,
      "scipy": 3026,
      "learn": 3027,
      "ific": 3028,
      "('\\": 3029,
      "add_row": 3030,
      "release": 3031,
      "list_": 3032,
      "connect": 3033,
      "shutit_pexpect_": 3034,
      "Only": 3035,
      "category": 3036,
      "DF": 3037,
      "iterable": 3038,
      "because": 3039,
      "As": 3040,
      "admin": 3041,
      "arrays": 3042,
      "addres": 3043,
      "run_": 3044,
      "longitude": 3045,
      "01": 3046,
      "und_": 3047,
      "dimensions": 3048,
      "these": 3049,
      "expect": 3050,
      "callable": 3051,
      "Color": 3052,
      "TYP": 3053,
      "i_": 3054,
      "ward": 3055,
      "relat": 3056,
      "_input": 3057,
      "total_": 3058,
      "He": 3059,
      "calculate": 3060,
      "_map": 3061,
      "cursor": 3062,
      "Function": 3063,
      "future": 3064,
      "book": 3065,
      "previous": 3066,
      "pid": 3067,
      "perform": 3068,
      "plotlib": 3069,
      "haz": 3070,
      "uto": 3071,
      "ropy": 3072,
      "[(": 3073,
      "direc": 3074,
      "dn": 3075,
      "plat": 3076,
      "til": 3077,
      "scope": 3078,
      "surface": 3079,
      "ured": 3080,
      "quival": 3081,
      ".'": 3082,
      "lar": 3083,
      "generated": 3084,
      "resolve": 3085,
      "66": 3086,
      "EL": 3087,
      "matplotlib": 3088,
      "dumps": 3089,
      "flat": 3090,
      "gue": 3091,
      "pressure": 3092,
      "('--": 3093,
      "_presence": 3094,
      "FOR": 3095,
      "ION": 3096,
      "}\".": 3097,
      "Y_": 3098,
      "thumbnail": 3099,
      "ard_": 3100,
      "_values": 3101,
      "dstore": 3102,
      "ha": 3103,
      "ike": 3104,
      "pt": 3105,
      "rece": 3106,
      "loads": 3107,
      "structure": 3108,
      "vider": 3109,
      "SO": 3110,
      "Star": 3111,
      "catalog": 3112,
      "Gra": 3113,
      "^{": 3114,
      "_1": 3115,
      "formed": 3116,
      "extract": 3117,
      "allowed": 3118,
      "POST": 3119,
      "resp": 3120,
      "has_": 3121,
      "archive": 3122,
      "licy": 3123,
      "KE": 3124,
      "Soft": 3125,
      "_state": 3126,
      "pn": 3127,
      "rest": 3128,
      "about": 3129,
      "cannot": 3130,
      "gradi": 3131,
      "_point": 3132,
      "equal": 3133,
      "arc": 3134,
      "velo": 3135,
      "select": 3136,
      "You": 3137,
      "plo": 3138,
      "sian": 3139,
      "matching": 3140,
      "interpol": 3141,
      "warnings": 3142,
      "Network": 3143,
      "Sy": 3144,
      "opti": 3145,
      "promp": 3146,
      "mix": 3147,
      "amo": 3148,
      "representing": 3149,
      "Update": 3150,
      "_poin": 3151,
      "generate_": 3152,
      "radius": 3153,
      "OS": 3154,
      "decor": 3155,
      "roo": 3156,
      "track": 3157,
      "transaction": 3158,
      "read_": 3159,
      "colors": 3160,
      "Log": 3161,
      "pkg": 3162,
      "BUG": 3163,
      "as_": 3164,
      "datacenter": 3165,
      "week": 3166,
      "phase": 3167,
      "DEBUG": 3168,
      "constant": 3169,
      "Calculate": 3170,
      "atom": 3171,
      "old_": 3172,
      "sort_": 3173,
      "_proxy": 3174,
      "ources": 3175,
      "Compute": 3176,
      "Out": 3177,
      "sv": 3178,
      "sav": 3179,
      "relative": 3180,
      "cut": 3181,
      "fer": 3182,
      "siz": 3183,
      "print_": 3184,
      "securityHandler": 3185,
      "dices": 3186,
      "ily": 3187,
      "lack": 3188,
      "what": 3189,
      "dists": 3190,
      "_page": 3191,
      "destination": 3192,
      "Ho": 3193,
      "simple": 3194,
      "vertex": 3195,
      "_pri": 3196,
      "since": 3197,
      "surname1": 3198,
      "alt": 3199,
      "lient": 3200,
      "short": 3201,
      "Parse": 3202,
      "_x": 3203,
      "verify": 3204,
      "apsho": 3205,
      "cols": 3206,
      "support": 3207,
      "70": 3208,
      "Cell": 3209,
      "Class": 3210,
      ".)": 3211,
      "tic": 3212,
      "user_": 3213,
      "_class": 3214,
      "assu": 3215,
      "vidual": 3216,
      "primary": 3217,
      "DEFA": 3218,
      "DEFAUL": 3219,
      "TH": 3220,
      "ism": 3221,
      "cape": 3222,
      "library": 3223,
      "Example": 3224,
      "serialize": 3225,
      "=[": 3226,
      "marker": 3227,
      "AttributeError": 3228,
      "poch": 3229,
      "uses": 3230,
      "lons": 3231,
      "cording": 3232,
      "CE": 3233,
      "ely": 3234,
      "ller": 3235,
      "writer": 3236,
      "_files": 3237,
      "layers": 3238,
      "mach": 3239,
      "aper": 3240,
      "ways": 3241,
      "equival": 3242,
      "sl": 3243,
      "ste": 3244,
      "_code": 3245,
      "boot": 3246,
      "tables": 3247,
      "interface": 3248,
      "update_": 3249,
      "publish": 3250,
      "Item": 3251,
      "Source": 3252,
      "stra": 3253,
      "adjust": 3254,
      "overri": 3255,
      "(%": 3256,
      "1D": 3257,
      "</": 3258,
      "bad": 3259,
      "next_": 3260,
      "Filter": 3261,
      "usage": 3262,
      "~~": 3263,
      "lex": 3264,
      "loaded": 3265,
      "ateg": 3266,
      "dims": 3267,
      "days": 3268,
      "('-": 3269,
      "Any": 3270,
      "Process": 3271,
      "{\\": 3272,
      "constra": 3273,
      "population": 3274,
      "ED": 3275,
      "Of": 3276,
      "bul": 3277,
      "ratio": 3278,
      "formatting": 3279,
      "sym": 3280,
      "src_": 3281,
      "cp": 3282,
      "fit_": 3283,
      "fetch": 3284,
      "candidate": 3285,
      "fine": 3286,
      "suffix": 3287,
      "AG": 3288,
      "P1": 3289,
      "_pos": 3290,
      "There": 3291,
      "Extra": 3292,
      "stdde": 3293,
      "L_": 3294,
      "ditions": 3295,
      "abo": 3296,
      "spk": 3297,
      "Range": 3298,
      "SD": 3299,
      "Temp": 3300,
      "concat": 3301,
      "('/": 3302,
      "inten": 3303,
      "000": 3304,
      "Parser": 3305,
      "aux": 3306,
      "clear": 3307,
      "proxy_port": 3308,
      "Gener": 3309,
      "`~": 3310,
      "fon": 3311,
      "mand": 3312,
      "deg": 3313,
      "References": 3314,
      "paths": 3315,
      "google": 3316,
      "property": 3317,
      "Found": 3318,
      "Window": 3319,
      "vm": 3320,
      "tered": 3321,
      "numbers": 3322,
      "user_id": 3323,
      "_indices": 3324,
      "compile": 3325,
      "indent": 3326,
      "of_": 3327,
      "figure": 3328,
      "_samples": 3329,
      "ority": 3330,
      "proxy_url": 3331,
      "spike": 3332,
      "class__": 3333,
      "periment": 3334,
      "bro": 3335,
      "t_name": 3336,
      "virt": 3337,
      "etc": 3338,
      "characters": 3339,
      "eig": 3340,
      "according": 3341,
      "[:-": 3342,
      "Be": 3343,
      "EX": 3344,
      "Lin": 3345,
      "uplic": 3346,
      "_securityHandler": 3347,
      "certifi": 3348,
      "Service": 3349,
      "Runtime": 3350,
      "_request": 3351,
      "mechan": 3352,
      "ality": 3353,
      "modules": 3354,
      "projection": 3355,
      "Length": 3356,
      "definition": 3357,
      "NT": 3358,
      "VER": 3359,
      "many": 3360,
      "__class__": 3361,
      "image_": 3362,
      "export": 3363,
      "above": 3364,
      "-=": 3365,
      "iod": 3366,
      "proble": 3367,
      "recursive": 3368,
      "nam": 3369,
      "tick": 3370,
      "pool": 3371,
      "ternal": 3372,
      "sw": 3373,
      "register": 3374,
      "Var": 3375,
      "words": 3376,
      "safe": 3377,
      "P_": 3378,
      "fy": 3379,
      "protocol": 3380,
      "util": 3381,
      "supplied": 3382,
      "grees": 3383,
      "sid": 3384,
      "expi": 3385,
      "use_": 3386,
      "encoded": 3387,
      "determine": 3388,
      "secre": 3389,
      "ift": 3390,
      "resources": 3391,
      "home": 3392,
      "_post": 3393,
      "Meth": 3394,
      "distribution": 3395,
      "imat": 3396,
      "rection": 3397,
      "wik": 3398,
      "loglevel": 3399,
      "individual": 3400,
      "numeric": 3401,
      "none": 3402,
      "ship": 3403,
      "parsed": 3404,
      "scheme": 3405,
      "observation": 3406,
      "FO": 3407,
      "init": 3408,
      "sep": 3409,
      "ones": 3410,
      "descri": 3411,
      "_to": 3412,
      "data_type": 3413,
      "{})": 3414,
      "automat": 3415,
      "meas": 3416,
      "setup": 3417,
      "spacing": 3418,
      "ded_": 3419,
      "timezone": 3420,
      "GER": 3421,
      "Imp": 3422,
      "fri": 3423,
      "glyph": 3424,
      "ie": 3425,
      "vity": 3426,
      "send_": 3427,
      "chosen": 3428,
      "Address": 3429,
      "gm": 3430,
      "dete": 3431,
      "tile": 3432,
      "moo": 3433,
      "most": 3434,
      "instances": 3435,
      "cells": 3436,
      "Point": 3437,
      "coordinate": 3438,
      "pixels": 3439,
      "mented": 3440,
      "scalar": 3441,
      "stddev": 3442,
      "Other": 3443,
      "_length": 3444,
      "vation": 3445,
      "steps": 3446,
      "_proxy_port": 3447,
      "did": 3448,
      "cts": 3449,
      "Retri": 3450,
      "links": 3451,
      "36": 3452,
      "epoch": 3453,
      "Determin": 3454,
      "service_": 3455,
      "normalize": 3456,
      "When": 3457,
      "Ne": 3458,
      "insert": 3459,
      "degrees": 3460,
      "tax": 3461,
      "plain": 3462,
      "owner": 3463,
      "txt": 3464,
      "_proxy_url": 3465,
      "make_": 3466,
      "changed": 3467,
      "band": 3468,
      "hard": 3469,
      "ial": 3470,
      "cook": 3471,
      "1000": 3472,
      "histogram": 3473,
      "_RE": 3474,
      "mn": 3475,
      "uage": 3476,
      "trib": 3477,
      "coords": 3478,
      "({'": 3479,
      "Label": 3480,
      "nan": 3481,
      "sparse": 3482,
      "annot": 3483,
      "require": 3484,
      "=%": 3485,
      "asci": 3486,
      "actions": 3487,
      "download": 3488,
      "amount": 3489,
      "(?": 3490,
      "drop": 3491,
      "ws": 3492,
      "raster": 3493,
      "point_": 3494,
      "logy": 3495,
      "(\"\\": 3496,
      "stddevs": 3497,
      "curve": 3498,
      "actual": 3499,
      "vs30": 3500,
      "registry": 3501,
      "P2": 3502,
      "SA": 3503,
      "gn": 3504,
      "verage": 3505,
      "doesn": 3506,
      "additional": 3507,
      "SER": 3508,
      "Width": 3509,
      "credentials": 3510,
      "alle": 3511,
      "general": 3512,
      "ually": 3513,
      "repr": 3514,
      "ulti": 3515,
      "('%": 3516,
      "foo": 3517,
      "epsi": 3518,
      "pairs": 3519,
      "masked": 3520,
      "Line": 3521,
      "status_": 3522,
      "blocks": 3523,
      "execu": 3524,
      "alternatives": 3525,
      "Content": 3526,
      "Sho": 3527,
      "_obj": 3528,
      "kg": 3529,
      "sched": 3530,
      "eno": 3531,
      "cost": 3532,
      "ts_": 3533,
      "users": 3534,
      "Inst": 3535,
      "Dele": 3536,
      "field_name": 3537,
      "\"],": 3538,
      "SH": 3539,
      "orth": 3540,
      "ense": 3541,
      ":\\": 3542,
      "hdf": 3543,
      "pose": 3544,
      "extract_": 3545,
      "ackage": 3546,
      "\"])": 3547,
      "bits": 3548,
      "bbox": 3549,
      "notes": 3550,
      "expr": 3551,
      "75": 3552,
      "bl": 3553,
      "false": 3554,
      "diag": 3555,
      "conditions": 3556,
      "starting": 3557,
      "28": 3558,
      "rules": 3559,
      "were": 3560,
      "_idx": 3561,
      "dirname": 3562,
      "Make": 3563,
      "Multi": 3564,
      "along": 3565,
      "named": 3566,
      "time_": 3567,
      "licit": 3568,
      "256": 3569,
      "35": 3570,
      "_M": 3571,
      "alab": 3572,
      "calculation": 3573,
      "remove_": 3574,
      "surname2": 3575,
      "enabled": 3576,
      "Should": 3577,
      ":%": 3578,
      "ring": 3579,
      "Remove": 3580,
      "helper": 3581,
      "utes": 3582,
      "ellip": 3583,
      "_per_": 3584,
      "rows_to_": 3585,
      "transl": 3586,
      "\"{": 3587,
      "country": 3588,
      "compres": 3589,
      "ckets": 3590,
      "hypo": 3591,
      "Manager": 3592,
      "pan": 3593,
      "round": 3594,
      "peed": 3595,
      "result_": 3596,
      "sent": 3597,
      "IDs": 3598,
      "UM": 3599,
      "could": 3600,
      "validate_": 3601,
      "plication": 3602,
      "internal": 3603,
      "-%": 3604,
      "_w": 3605,
      "fr": 3606,
      "lint": 3607,
      "too": 3608,
      "coefficient": 3609,
      "orts": 3610,
      "olute": 3611,
      "absolute": 3612,
      "Failed": 3613,
      "Mat": 3614,
      "cmap": 3615,
      "structor": 3616,
      "COL": 3617,
      "Collection": 3618,
      "control": 3619,
      "endswith": 3620,
      "node_": 3621,
      "TION": 3622,
      "rhog": 3623,
      ".*": 3624,
      "34": 3625,
      "minimum": 3626,
      "radians": 3627,
      "epsilon": 3628,
      "]+": 3629,
      "ght": 3630,
      "her": 3631,
      "itor": 3632,
      "subsc": 3633,
      "plane": 3634,
      "content_type": 3635,
      "RuntimeError": 3636,
      "OT": 3637,
      "quanti": 3638,
      "import_": 3639,
      "rupt": 3640,
      "small": 3641,
      "component": 3642,
      "transition": 3643,
      "02": 3644,
      "bas": 3645,
      "value_": 3646,
      "_sy": 3647,
      "ATION": 3648,
      "pipeline": 3649,
      "Max": 3650,
      "yam": 3651,
      "unknown": 3652,
      "State": 3653,
      "positive": 3654,
      "Des": 3655,
      "Send": 3656,
      "_group": 3657,
      "rhol": 3658,
      "statist": 3659,
      "Param": 3660,
      "inputs": 3661,
      "Order": 3662,
      "precated": 3663,
      "template_": 3664,
      "_points": 3665,
      ")*": 3666,
      "Flow": 3667,
      "mit": 3668,
      "dec": 3669,
      "cale": 3670,
      "statement": 3671,
      "identity": 3672,
      "DEFAULT_": 3673,
      "always": 3674,
      "desi": 3675,
      "_py": 3676,
      "vec": 3677,
      "Open": 3678,
      "cc": 3679,
      "tty": 3680,
      "security": 3681,
      "cod": 3682,
      "sha": 3683,
      "Calculates": 3684,
      "platform": 3685,
      "dh": 3686,
      "Search": 3687,
      "DoubleVector": 3688,
      "From": 3689,
      "Tuple": 3690,
      "experiment": 3691,
      "dirs": 3692,
      "filter_": 3693,
      "vario": 3694,
      "would": 3695,
      "Auth": 3696,
      "dri": 3697,
      "k_": 3698,
      "encies": 3699,
      "leep": 3700,
      "matched": 3701,
      "audi": 3702,
      "expand": 3703,
      "split_": 3704,
      "tools": 3705,
      "eigen": 3706,
      "pus": 3707,
      "screen": 3708,
      "ton": 3709,
      "white": 3710,
      "phi": 3711,
      "Series": 3712,
      "samp": 3713,
      "App": 3714,
      "root_": 3715,
      "gu": 3716,
      "until": 3717,
      "Values": 3718,
      "raw_": 3719,
      "estimat": 3720,
      "chunks": 3721,
      "duration": 3722,
      "CL": 3723,
      "Le": 3724,
      "gas": 3725,
      "pare": 3726,
      "acti": 3727,
      "density": 3728,
      "boundary": 3729,
      "GET": 3730,
      "Imple": 3731,
      "ped_": 3732,
      "ctions": 3733,
      "span": 3734,
      "datalab": 3735,
      "language": 3736,
      "fp": 3737,
      "those": 3738,
      "imal": 3739,
      "ived": 3740,
      "SoftLayer": 3741,
      "ascii": 3742,
      "04": 3743,
      "table_name": 3744,
      "block_": 3745,
      "nvmlDevice": 3746,
      "Feature": 3747,
      "mechanism": 3748,
      "38": 3749,
      "Page": 3750,
      "fc": 3751,
      "reset": 3752,
      "neigh": 3753,
      "compo": 3754,
      "lead": 3755,
      "linear": 3756,
      "removed": 3757,
      "orizont": 3758,
      "ord_": 3759,
      "execut": 3760,
      "Method": 3761,
      "K_": 3762,
      "dur": 3763,
      "ener": 3764,
      "via": 3765,
      "_sum": 3766,
      "first_": 3767,
      "ports": 3768,
      "ttFont": 3769,
      "Pol": 3770,
      "pdf": 3771,
      "x1": 3772,
      "decryp": 3773,
      "(\"%": 3774,
      "ices": 3775,
      "unpack": 3776,
      "()):": 3777,
      "with_": 3778,
      "views": 3779,
      "'\"": 3780,
      "Hel": 3781,
      "IF": 3782,
      "asset": 3783,
      "voxel": 3784,
      "modified": 3785,
      "negative": 3786,
      "png": 3787,
      ");": 3788,
      "05": 3789,
      "older": 3790,
      "ilities": 3791,
      "UE": 3792,
      "air": 3793,
      "ticket": 3794,
      "exact": 3795,
      "()))": 3796,
      "filepath": 3797,
      "Code": 3798,
      "Map": 3799,
      "Whe": 3800,
      "_format": 3801,
      "h1": 3802,
      "calc": 3803,
      "allow_": 3804,
      "void": 3805,
      "mut": 3806,
      "requ": 3807,
      "aries": 3808,
      "param_dict": 3809,
      "ATE": 3810,
      "atial": 3811,
      "shutit_global": 3812,
      "shutit_global_": 3813,
      "Column": 3814,
      "probab": 3815,
      "precision": 3816,
      "shutit_global_object": 3817,
      "prop": 3818,
      "tries": 3819,
      "{},": 3820,
      "selected": 3821,
      "ized": 3822,
      "Overlay": 3823,
      "<<": 3824,
      "Vi": 3825,
      "]])": 3826,
      "bility": 3827,
      "incre": 3828,
      "Calculating": 3829,
      "controller": 3830,
      "oqparam": 3831,
      "Graph": 3832,
      "_set": 3833,
      "attemp": 3834,
      "means": 3835,
      "iso": 3836,
      "geom": 3837,
      "acity": 3838,
      "OP": 3839,
      "RI": 3840,
      "ifa": 3841,
      "enter": 3842,
      "terms": 3843,
      "final": 3844,
      "commit": 3845,
      "targets": 3846,
      "automatically": 3847,
      "pher": 3848,
      "corr": 3849,
      "azim": 3850,
      "reduce": 3851,
      "score": 3852,
      "error_": 3853,
      "fluid": 3854,
      "ridge": 3855,
      "optimi": 3856,
      "85": 3857,
      "alled": 3858,
      "diameter": 3859,
      "order_": 3860,
      "pick": 3861,
      "lats": 3862,
      "cloud": 3863,
      "padding": 3864,
      "wd": 3865,
      "}'": 3866,
      "erature": 3867,
      "least": 3868,
      "long_": 3869,
      "Write": 3870,
      "certificate": 3871,
      "SQ": 3872,
      "_match": 3873,
      "pc": 3874,
      "prag": 3875,
      "sleep": 3876,
      "uuid": 3877,
      "Reference": 3878,
      "ip_": 3879,
      "rlz": 3880,
      "'{}": 3881,
      "Clo": 3882,
      "ire": 3883,
      "ended": 3884,
      "dynam": 3885,
      "snapsho": 3886,
      "bottom": 3887,
      "pragma": 3888,
      "'')": 3889,
      "MI": 3890,
      "jang": 3891,
      "vectors": 3892,
      "LOGGER": 3893,
      "Vari": 3894,
      "26": 3895,
      "CT": 3896,
      "remain": 3897,
      "lik": 3898,
      "deno": 3899,
      "_period": 3900,
      "Matrix": 3901,
      ">`": 3902,
      "PS": 3903,
      "colle": 3904,
      "training": 3905,
      "quote": 3906,
      "eq": 3907,
      "login": 3908,
      "author": 3909,
      "declaration": 3910,
      "catalogue": 3911,
      "sizes": 3912,
      "virtual": 3913,
      ")])": 3914,
      "HO": 3915,
      "SC": 3916,
      "}.": 3917,
      "seed": 3918,
      "ROOT": 3919,
      "_l": 3920,
      "smoo": 3921,
      "rout": 3922,
      "cker": 3923,
      "implement": 3924,
      "A_": 3925,
      "_options": 3926,
      "pin": 3927,
      "lev": 3928,
      "_pattern": 3929,
      "present": 3930,
      "compute_": 3931,
      "FORM": 3932,
      "equivalent": 3933,
      "View": 3934,
      "jango": 3935,
      "2d": 3936,
      "pg": 3937,
      "ops": 3938,
      "ilar": 3939,
      "agg": 3940,
      "tuples": 3941,
      "store_": 3942,
      "FILE": 3943,
      "Whether": 3944,
      "mgr": 3945,
      "nr": 3946,
      "samples": 3947,
      "assets": 3948,
      "best": 3949,
      "intervals": 3950,
      "ields": 3951,
      "provide": 3952,
      "PARAM": 3953,
      "ik": 3954,
      "dia": 3955,
      "verif": 3956,
      "shared": 3957,
      "Record": 3958,
      "prediction": 3959,
      "entifi": 3960,
      "difference": 3961,
      "strict": 3962,
      "www": 3963,
      "DB": 3964,
      "Head": 3965,
      "Pr": 3966,
      "_width": 3967,
      "mid": 3968,
      "chain": 3969,
      "proc": 3970,
      "sos_dict": 3971,
      "acy": 3972,
      "counts": 3973,
      "Could": 3974,
      "private": 3975,
      "override": 3976,
      ",'": 3977,
      ",)": 3978,
      "maj": 3979,
      "argv": 3980,
      "quake": 3981,
      "arning": 3982,
      "havi": 3983,
      ")/": 3984,
      "_is_": 3985,
      "_parser": 3986,
      "cri": 3987,
      "tab": 3988,
      "another": 3989,
      "digest": 3990,
      "esri": 3991,
      "ession": 3992,
      "opts": 3993,
      "accep": 3994,
      "Proper": 3995,
      "Uni": 3996,
      "representation": 3997,
      "GPU": 3998,
      "prompt": 3999,
      "Find": 4000,
      "Vis": 4001,
      "prev": 4002,
      "requested": 4003,
      "cular": 4004,
      "vision": 4005,
      "1E": 4006,
      "Sto": 4007,
      "average": 4008,
      "lists": 4009,
      "counter": 4010,
      "cast": 4011,
      "finally": 4012,
      "iterator": 4013,
      "project_id": 4014,
      "large": 4015,
      "_sub": 4016,
      "iloc": 4017,
      "ris": 4018,
      "tl": 4019,
      "orary": 4020,
      "tier": 4021,
      "ket": 4022,
      "lenout": 4023,
      "pylint": 4024,
      "Output": 4025,
      "repe": 4026,
      "below": 4027,
      "valid_": 4028,
      "Version": 4029,
      "3d": 4030,
      "_text": 4031,
      "fam": 4032,
      "header_": 4033,
      "firm": 4034,
      "centro": 4035,
      "Result": 4036,
      "Status": 4037,
      "\"].": 4038,
      "dc": 4039,
      "war": 4040,
      "asc": 4041,
      "_y": 4042,
      "sg": 4043,
      "deprecated": 4044,
      "eli": 4045,
      "escape": 4046,
      "texts": 4047,
      "DataCalculating": 4048,
      "handle_": 4049,
      "media": 4050,
      "180": 4051,
      "'+": 4052,
      "II": 4053,
      "duplic": 4054,
      "alt_": 4055,
      "INT": 4056,
      "ent_id": 4057,
      "voice": 4058,
      "Transform": 4059,
      "azimuth": 4060,
      "datasets": 4061,
      "------": 4062,
      "reader": 4063,
      "_create_": 4064,
      "iface": 4065,
      "(:": 4066,
      "Ab": 4067,
      "NS": 4068,
      "idi": 4069,
      "power": 4070,
      "sport": 4071,
      "tification": 4072,
      "Pri": 4073,
      "installed": 4074,
      "subject": 4075,
      "normalized": 4076,
      "flush": 4077,
      "probability": 4078,
      ":])": 4079,
      "tcod": 4080,
      "spatial": 4081,
      "define": 4082,
      "65": 4083,
      "cti": 4084,
      "ql": 4085,
      "delim": 4086,
      "ings": 4087,
      "gram_": 4088,
      "finish": 4089,
      "avoid": 4090,
      "cert": 4091,
      "posit": 4092,
      "machine": 4093,
      "\"),": 4094,
      "ju": 4095,
      "Creates": 4096,
      "currence": 4097,
      "Otherwise": 4098,
      "\"))": 4099,
      ")\\": 4100,
      "23": 4101,
      "consum": 4102,
      "permissions": 4103,
      "limits": 4104,
      "*/": 4105,
      "Cur": 4106,
      "GI": 4107,
      "tim": 4108,
      "net_": 4109,
      "ical_": 4110,
      "stored": 4111,
      "255": 4112,
      "cross": 4113,
      "Spi": 4114,
      "aus": 4115,
      "x0": 4116,
      "vely": 4117,
      "ases": 4118,
      "clusters": 4119,
      "ignore_": 4120,
      "wall": 4121,
      "orted": 4122,
      "devices": 4123,
      "iss": 4124,
      "asarray": 4125,
      "Command": 4126,
      "yaml": 4127,
      "Cor": 4128,
      "xx": 4129,
      "updated": 4130,
      "directly": 4131,
      "separator": 4132,
      "sun": 4133,
      "attrib": 4134,
      "theta": 4135,
      "ough": 4136,
      "ER_": 4137,
      "ASS": 4138,
      "Min": 4139,
      "Pipe": 4140,
      "Volume": 4141,
      "cum": 4142,
      "ible": 4143,
      "connected": 4144,
      "gories": 4145,
      "decorator": 4146,
      "row_": 4147,
      "Context": 4148,
      "choo": 4149,
      "packages": 4150,
      "Buffer": 4151,
      "27": 4152,
      "Session": 4153,
      "Warning": 4154,
      "_image": 4155,
      "gate": 4156,
      "()[": 4157,
      "compati": 4158,
      "even": 4159,
      "signed": 4160,
      "sections": 4161,
      "selector": 4162,
      "dependent": 4163,
      "Ordered": 4164,
      "polygon": 4165,
      "/%": 4166,
      "uint": 4167,
      "elem": 4168,
      "parsed_": 4169,
      "Results": 4170,
      "ignored": 4171,
      "spaces": 4172,
      "legend": 4173,
      ":-": 4174,
      "[[": 4175,
      "lef": 4176,
      "file_name": 4177,
      "necess": 4178,
      "vide": 4179,
      "chema": 4180,
      "pretty": 4181,
      "Section": 4182,
      "needs": 4183,
      "problem": 4184,
      "Ht": 4185,
      "TS": 4186,
      "car": 4187,
      "overlap": 4188,
      "\"{}": 4189,
      "CM": 4190,
      "Please": 4191,
      "}\"": 4192,
      "rep": 4193,
      "('.": 4194,
      "Inte": 4195,
      "iteritems": 4196,
      "frag": 4197,
      "TIME": 4198,
      "Generate": 4199,
      "ithub": 4200,
      "Sele": 4201,
      "Tree": 4202,
      "}:": 4203,
      "once": 4204,
      "cost_": 4205,
      "loy": 4206,
      "full_": 4207,
      "pages": 4208,
      "_position": 4209,
      "domains": 4210,
      "start_time": 4211,
      "documentation": 4212,
      "Each": 4213,
      "_m": 4214,
      "ainst": 4215,
      "squ": 4216,
      "ensor": 4217,
      "ated_": 4218,
      "not_": 4219,
      "']))": 4220,
      "doi": 4221,
      "``'": 4222,
      "_cmd": 4223,
      "export_": 4224,
      "against": 4225,
      "converted": 4226,
      "astype": 4227,
      "reshape": 4228,
      "addresses": 4229,
      "F_": 4230,
      "XML": 4231,
      "tten": 4232,
      "versions": 4233,
      "lt": 4234,
      "choices": 4235,
      "Build": 4236,
      "DIR": 4237,
      "coefficients": 4238,
      "status_code": 4239,
      "EAD": 4240,
      "Tag": 4241,
      "zo": 4242,
      "logs": 4243,
      "hook": 4244,
      "curves": 4245,
      "_sco": 4246,
      "_probs": 4247,
      "period": 4248,
      "_filename": 4249,
      "tre": 4250,
      "ason": 4251,
      "lineno": 4252,
      "write_": 4253,
      "hyper": 4254,
      "shutit_pexpect_session": 4255,
      "gradient": 4256,
      "issue": 4257,
      "chooser": 4258,
      "29": 4259,
      "FL": 4260,
      "_model": 4261,
      "n_samples": 4262,
      "vol": 4263,
      "reci": 4264,
      "validation": 4265,
      "serialized": 4266,
      "Poly": 4267,
      "Fig": 4268,
      "delay": 4269,
      "ender": 4270,
      "quid": 4271,
      "entities": 4272,
      "variance": 4273,
      "righ": 4274,
      "0x0": 4275,
      "Geometry": 4276,
      "ification": 4277,
      "around": 4278,
      "coder": 4279,
      "amer": 4280,
      "sends": 4281,
      "Initi": 4282,
      "alizer": 4283,
      "openquake": 4284,
      "Desc": 4285,
      "IG": 4286,
      "Sign": 4287,
      "dx": 4288,
      "hsm": 4289,
      "king": 4290,
      "inside": 4291,
      "typ": 4292,
      "Cannot": 4293,
      "hazard": 4294,
      "'',": 4295,
      "New": 4296,
      "_len": 4297,
      "seq": 4298,
      "strap": 4299,
      "lag": 4300,
      "config_file": 4301,
      "ATH": 4302,
      "inspect": 4303,
      "necessary": 4304,
      "Must": 4305,
      "reposit": 4306,
      "written": 4307,
      "Sk": 4308,
      "tun": 4309,
      "macro": 4310,
      "ational": 4311,
      "this_": 4312,
      "cket_": 4313,
      "record_": 4314,
      "mean_": 4315,
      "One": 4316,
      "_mode": 4317,
      "_matrix": 4318,
      "gers": 4319,
      "Parameter": 4320,
      "Unknown": 4321,
      "nvmlDeviceGet": 4322,
      "Variable": 4323,
      "PARAMS": 4324,
      "21": 4325,
      "Fir": 4326,
      "ws_": 4327,
      "ceed": 4328,
      "tol": 4329,
      "()]": 4330,
      "col_": 4331,
      "priority": 4332,
      "Server": 4333,
      "END": 4334,
      "applied": 4335,
      "equation": 4336,
      "FAIL": 4337,
      "================": 4338,
      "aussian": 4339,
      "/{": 4340,
      "_set_": 4341,
      "fall": 4342,
      "coeff": 4343,
      "behavi": 4344,
      "_package": 4345,
      "shell": 4346,
      "queryset": 4347,
      "AND": 4348,
      "successful": 4349,
      "sync": 4350,
      "mic": 4351,
      "ual_": 4352,
      "calc_": 4353,
      "Exp": 4354,
      "geno": 4355,
      "_paths": 4356,
      "Import": 4357,
      "orizontal": 4358,
      "Mod": 4359,
      "hum": 4360,
      "y0": 4361,
      "rot": 4362,
      "perto": 4363,
      "codes": 4364,
      "temperature": 4365,
      "ubi": 4366,
      "rank": 4367,
      "sampling": 4368,
      "Url": 4369,
      "crop": 4370,
      "marg": 4371,
      "well": 4372,
      "resolution": 4373,
      "wide": 4374,
      "hood": 4375,
      "syste": 4376,
      "\"-": 4377,
      "HSM": 4378,
      "roll": 4379,
      ")).": 4380,
      "locations": 4381,
      "occur": 4382,
      "effect": 4383,
      "secret": 4384,
      "schedule": 4385,
      "Jo": 4386,
      "zz": 4387,
      "ert": 4388,
      "annel": 4389,
      "ged": 4390,
      "INFO": 4391,
      "collections": 4392,
      "desired": 4393,
      "Rand": 4394,
      "ross": 4395,
      "_proper": 4396,
      "IOError": 4397,
      "Spice": 4398,
      "right_": 4399,
      ")',": 4400,
      "github": 4401,
      "predic": 4402,
      "_interval": 4403,
      "37": 4404,
      "gl": 4405,
      "alts": 4406,
      "arange": 4407,
      "board": 4408,
      "_spec": 4409,
      "Contain": 4410,
      "states": 4411,
      "estimator": 4412,
      "idity": 4413,
      "h2": 4414,
      "mk": 4415,
      "pho": 4416,
      "utc": 4417,
      "final_": 4418,
      "requires": 4419,
      "Channel": 4420,
      "ABLE": 4421,
      ")}": 4422,
      "cn": 4423,
      "sses": 4424,
      "lic_": 4425,
      "timedelta": 4426,
      "urls": 4427,
      "serial": 4428,
      "hardware": 4429,
      "Http": 4430,
      "'}": 4431,
      "sequ": 4432,
      "observer": 4433,
      "minim": 4434,
      "outputs": 4435,
      "variation": 4436,
      "Application": 4437,
      "ULL": 4438,
      "HTML": 4439,
      "repository": 4440,
      "67": 4441,
      "Ion": 4442,
      "fd_": 4443,
      "ordered": 4444,
      "alg": 4445,
      "aster": 4446,
      "}{\\": 4447,
      "symbols": 4448,
      "during": 4449,
      "44": 4450,
      "89": 4451,
      "Bit": 4452,
      "cit": 4453,
      "digit": 4454,
      "ssl": 4455,
      "_clo": 4456,
      "INE": 4457,
      "ization": 4458,
      "flatten": 4459,
      "Delete": 4460,
      "OrderedDict": 4461,
      ")'": 4462,
      "31": 4463,
      "Dist": 4464,
      "Given": 4465,
      "Tensor": 4466,
      "_by": 4467,
      "fl": 4468,
      "alk": 4469,
      "team": 4470,
      "notification": 4471,
      "examples": 4472,
      "abcorr": 4473,
      "ather": 4474,
      "_init_": 4475,
      "Conne": 4476,
      "hosts": 4477,
      "currently": 4478,
      "monitor": 4479,
      "boxes": 4480,
      "rupture": 4481,
      "appropri": 4482,
      "Start": 4483,
      "Ax": 4484,
      "SR": 4485,
      "a2": 4486,
      "sg_": 4487,
      "win": 4488,
      "rotation": 4489,
      "_pub": 4490,
      "regular": 4491,
      "refresh": 4492,
      "unit_": 4493,
      "And": 4494,
      "retrieve": 4495,
      "First": 4496,
      "PL": 4497,
      "_n": 4498,
      "_node": 4499,
      "black": 4500,
      "serve": 4501,
      "formats": 4502,
      "similar": 4503,
      "saved": 4504,
      "requency": 4505,
      "C_": 4506,
      "_fields": 4507,
      "meter": 4508,
      "GU": 4509,
      "Tar": 4510,
      "_header": 4511,
      "zn": 4512,
      "asse": 4513,
      "consist": 4514,
      "agre": 4515,
      "job_id": 4516,
      "concaten": 4517,
      "DU": 4518,
      "ven": 4519,
      "istic": 4520,
      "handl": 4521,
      "_permission": 4522,
      "monthly": 4523,
      "processed": 4524,
      "WAR": 4525,
      "_kwargs": 4526,
      "css": 4527,
      "Sets": 4528,
      "crs": 4529,
      "TL": 4530,
      "km": 4531,
      "p1": 4532,
      "ration": 4533,
      "orical": 4534,
      "test_": 4535,
      "fid": 4536,
      "assword": 4537,
      "lug": 4538,
      "effici": 4539,
      "built": 4540,
      "delete_": 4541,
      "hyperedge_id": 4542,
      "neurites": 4543,
      "Client": 4544,
      "Match": 4545,
      "blob": 4546,
      "got": 4547,
      "hue": 4548,
      "selection": 4549,
      "unch": 4550,
      "tpm": 4551,
      "Token": 4552,
      "Fin": 4553,
      "_response": 4554,
      "cu": 4555,
      "she": 4556,
      "speed": 4557,
      "references": 4558,
      "no_": 4559,
      "post_": 4560,
      "maps": 4561,
      ":`.": 4562,
      "local_": 4563,
      "partial": 4564,
      "_from": 4565,
      "_array": 4566,
      "ified": 4567,
      "\").": 4568,
      "certain": 4569,
      "utilities": 4570,
      "SQL": 4571,
      "Ed": 4572,
      "PY": 4573,
      "Sup": 4574,
      "br": 4575,
      "tau": 4576,
      "getter": 4577,
      "kwds": 4578,
      "checks": 4579,
      "orize": 4580,
      "levels": 4581,
      "Location": 4582,
      "calculated": 4583,
      "constants": 4584,
      "arcpy": 4585,
      "pertoire": 4586,
      "_nvml": 4587,
      "_LOGGER": 4588,
      "jo": 4589,
      "mal": 4590,
      "tered_": 4591,
      "quired": 4592,
      "layout": 4593,
      "categories": 4594,
      "complex": 4595,
      "authentication": 4596,
      "progress": 4597,
      "font_": 4598,
      "family": 4599,
      "_read": 4600,
      "s3": 4601,
      "reco": 4602,
      "fault": 4603,
      "cached": 4604,
      "Unit": 4605,
      "metrics": 4606,
      "VALID": 4607,
      "including": 4608,
      "utility": 4609,
      "array_like": 4610,
      "-\\": 4611,
      "1e": 4612,
      "dk": 4613,
      "external": 4614,
      "policy": 4615,
      "s_list": 4616,
      "sock": 4617,
      "ATA": 4618,
      "flux": 4619,
      "purview": 4620,
      "friction": 4621,
      "Day": 4622,
      "MO": 4623,
      "Rel": 4624,
      "iei": 4625,
      "vate": 4626,
      "memb": 4627,
      "argparse": 4628,
      "file_path": 4629,
      "raised": 4630,
      "='',": 4631,
      "grp": 4632,
      "Unable": 4633,
      "abspath": 4634,
      "KEY": 4635,
      "watch": 4636,
      "peak": 4637,
      "chrom": 4638,
      "mast": 4639,
      "foot": 4640,
      "worker": 4641,
      "clip": 4642,
      "SET": 4643,
      "likeli": 4644,
      "Block": 4645,
      "Is": 4646,
      "Mem": 4647,
      "bill": 4648,
      "c2": 4649,
      "e_": 4650,
      "top_": 4651,
      "rad": 4652,
      "do_": 4653,
      "function_table": 4654,
      "expan": 4655,
      "manage": 4656,
      "ASN": 4657,
      "Region": 4658,
      "registration": 4659,
      "variogram_": 4660,
      "rb": 4661,
      "resid": 4662,
      "pacing": 4663,
      "performed": 4664,
      "elevation": 4665,
      "output_dir": 4666,
      "---+": 4667,
      "Allow": 4668,
      "successfully": 4669,
      "estimated": 4670,
      "bigquery": 4671,
      "NULL": 4672,
      "[],": 4673,
      "contexts": 4674,
      "embed": 4675,
      "Retrieve": 4676,
      "Determine": 4677,
      "\"'": 4678,
      "cen": 4679,
      "jac": 4680,
      "dest_": 4681,
      "string_types": 4682,
      "static": 4683,
      "neuron": 4684,
      "Store": 4685,
      "Target": 4686,
      "Lev": 4687,
      "mq": 4688,
      "pch": 4689,
      "rake": 4690,
      "minute": 4691,
      "basename": 4692,
      "tasks": 4693,
      "processes": 4694,
      "direct_": 4695,
      "received": 4696,
      "measure": 4697,
      "statistics": 4698,
      "risk": 4699,
      "members": 4700,
      "_start": 4701,
      "tu": 4702,
      "chord": 4703,
      "']])": 4704,
      "share": 4705,
      "Sequence": 4706,
      "Diction": 4707,
      "titude": 4708,
      "positions": 4709,
      "capacity": 4710,
      "tzinfo": 4711,
      "sendspec": 4712,
      "Del": 4713,
      "Wor": 4714,
      "_field": 4715,
      "gid": 4716,
      "mm": 4717,
      "vlan": 4718,
      "rase": 4719,
      "soma": 4720,
      "pie": 4721,
      "checksum": 4722,
      "corpus": 4723,
      "STR": 4724,
      "fraction": 4725,
      "dependencies": 4726,
      "execution": 4727,
      "95": 4728,
      "_term": 4729,
      "_of_": 4730,
      "dp": 4731,
      "free": 4732,
      "nx": 4733,
      "vor": 4734,
      "heat": 4735,
      "grams": 4736,
      "reement": 4737,
      "initialized": 4738,
      "ACK": 4739,
      "channels": 4740,
      "hourly": 4741,
      "extensions": 4742,
      "bootstrap": 4743,
      "Cel": 4744,
      "might": 4745,
      "ering": 4746,
      "conside": 4747,
      "master": 4748,
      "lags": 4749,
      "grou": 4750,
      "Level": 4751,
      ")\"": 4752,
      "Lim": 4753,
      "TCO": 4754,
      "h5": 4755,
      "ous_": 4756,
      "plan": 4757,
      "calls": 4758,
      "chars": 4759,
      "(',": 4760,
      "48": 4761,
      "Mon": 4762,
      "i3": 4763,
      "kl": 4764,
      "ving": 4765,
      "\"\",": 4766,
      "related": 4767,
      "SION": 4768,
      "roughness": 4769,
      "traceback": 4770,
      "Big": 4771,
      "`):": 4772,
      "ia": 4773,
      "shift": 4774,
      "Exec": 4775,
      "gran": 4776,
      "astropy": 4777,
      "Change": 4778,
      "Compon": 4779,
      "dimensional": 4780,
      "median": 4781,
      "base_learn": 4782,
      "Dictionary": 4783,
      "El": 4784,
      "bal": 4785,
      "v6": 4786,
      "trun": 4787,
      "lave": 4788,
      "mething": 4789,
      "eps": 4790,
      "ref_": 4791,
      "iteration": 4792,
      "_session": 4793,
      "Look": 4794,
      "wait_": 4795,
      "original_": 4796,
      "patterns": 4797,
      "product": 4798,
      "ticks": 4799,
      "my_": 4800,
      "s2": 4801,
      "wcs": 4802,
      "x3": 4803,
      "ural": 4804,
      "exclu": 4805,
      "vers": 4806,
      "Int": 4807,
      "Console": 4808,
      "avg": 4809,
      "port_": 4810,
      "geometri": 4811,
      "scaling": 4812,
      "seek": 4813,
      "private_": 4814,
      "FFFFFFFF": 4815,
      "included": 4816,
      "considered": 4817,
      "=-": 4818,
      "Bad": 4819,
      "uted": 4820,
      "encrypted_": 4821,
      "agreem": 4822,
      "={": 4823,
      "CLI": 4824,
      "Render": 4825,
      "_B": 4826,
      "aws_": 4827,
      "reason": 4828,
      "onal": 4829,
      "chil": 4830,
      "light": 4831,
      "valve": 4832,
      "float32": 4833,
      "angular": 4834,
      "closed": 4835,
      "Enable": 4836,
      "Down": 4837,
      "Bytes": 4838,
      "TYPE": 4839,
      "Hist": 4840,
      "ZE": 4841,
      "_num": 4842,
      "sat": 4843,
      "noise": 4844,
      "program": 4845,
      "formatted": 4846,
      "count_": 4847,
      "discre": 4848,
      "graphs": 4849,
      "changes": 4850,
      "_ratio": 4851,
      "Contro": 4852,
      "CESS": 4853,
      "wiki": 4854,
      "entifier": 4855,
      "NE": 4856,
      "django": 4857,
      "ffi": 4858,
      "sed_": 4859,
      "allen": 4860,
      "setdefault": 4861,
      "\",\"": 4862,
      "factory": 4863,
      "_space": 4864,
      "senten": 4865,
      "attached": 4866,
      "left_": 4867,
      "FD": 4868,
      "devi": 4869,
      "meters": 4870,
      "conversion": 4871,
      "vertical": 4872,
      "obs_": 4873,
      "faces": 4874,
      "frames": 4875,
      "mime": 4876,
      "TED": 4877,
      "transport": 4878,
      "analy": 4879,
      "takes": 4880,
      "Sty": 4881,
      "ered": 4882,
      "rstrip": 4883,
      "provider": 4884,
      "docker": 4885,
      "soid": 4886,
      "trig": 4887,
      "configs": 4888,
      "shapes": 4889,
      "Arc": 4890,
      "ATE_": 4891,
      "module_id": 4892,
      "Vertex": 4893,
      "Extract": 4894,
      "Implemented": 4895,
      "neighb": 4896,
      "Property": 4897,
      "behavior": 4898,
      "appropriate": 4899,
      "\"--": 4900,
      "={'": 4901,
      "Hdr": 4902,
      "Job": 4903,
      "Rule": 4904,
      "_year": 4905,
      "cance": 4906,
      "uous": 4907,
      "ately": 4908,
      "cond": 4909,
      "adap": 4910,
      "upload": 4911,
      "compress": 4912,
      "datetimes": 4913,
      "pkt": 4914,
      "UTC": 4915,
      "observations": 4916,
      "Header": 4917,
      "Are": 4918,
      "_out": 4919,
      "card": 4920,
      "zen": 4921,
      "formatter": 4922,
      "ava": 4923,
      "shutit_pexpect_child": 4924,
      "System": 4925,
      "Helper": 4926,
      "delimiter": 4927,
      "micro": 4928,
      "Cells": 4929,
      ".\\": 4930,
      "_object": 4931,
      "park": 4932,
      "director": 4933,
      "api_key": 4934,
      "Encryp": 4935,
      "crypto": 4936,
      "Regist": 4937,
      "translation": 4938,
      ":,": 4939,
      "_range": 4940,
      "_hash": 4941,
      "_check_": 4942,
      "ban": 4943,
      "pending": 4944,
      "yet": 4945,
      "toDoubleVector": 4946,
      "exit_": 4947,
      "d_name": 4948,
      "Try": 4949,
      "jobs": 4950,
      "ttl": 4951,
      "NotFound": 4952,
      "Registr": 4953,
      "edit": 4954,
      "'``": 4955,
      "PU": 4956,
      "bing": 4957,
      "due": 4958,
      "mble": 4959,
      "returning": 4960,
      "subclass": 4961,
      "staff": 4962,
      "bytearray": 4963,
      "Does": 4964,
      "nested": 4965,
      "WARN": 4966,
      ")+": 4967,
      "Will": 4968,
      "_for": 4969,
      "_add_": 4970,
      "_event": 4971,
      "_handler": 4972,
      "usion": 4973,
      "ifies": 4974,
      "come": 4975,
      "coms": 4976,
      "dicoms": 4977,
      "sert_": 4978,
      "']]": 4979,
      "vip": 4980,
      "Parti": 4981,
      "initialize": 4982,
      "greater": 4983,
      "NotImplemented": 4984,
      "parent_": 4985,
      "probabilities": 4986,
      "pickle": 4987,
      "77": 4988,
      "RD": 4989,
      "Yubi": 4990,
      "_vars": 4991,
      "''.": 4992,
      "subset": 4993,
      "sentry": 4994,
      "compar": 4995,
      "output_keys": 4996,
      "public_": 4997,
      "visio": 4998,
      "encrypted": 4999,
      "assigned": 5000,
      "_symbol": 5001,
      "i3visio": 5002,
      "Norm": 5003,
      "[])": 5004,
      "_or_": 5005,
      "aead": 5006,
      "ced": 5007,
      "parsing": 5008,
      "utter": 5009,
      "pyhsm": 5010,
      "sorted_": 5011,
      "calling": 5012,
      "orient": 5013,
      "store_true": 5014,
      "55": 5015,
      "_compute_": 5016,
      "centi": 5017,
      "ftp": 5018,
      "slot": 5019,
      "semi": 5020,
      "aliases": 5021,
      "_fn": 5022,
      "scores": 5023,
      "conven": 5024,
      "intensity": 5025,
      "Random": 5026,
      "BigQuery": 5027,
      "1d": 5028,
      "_head": 5029,
      "js": 5030,
      "idden": 5031,
      "respect": 5032,
      "9999": 5033,
      "lexer": 5034,
      "basic": 5035,
      "major": 5036,
      "geometries": 5037,
      "cid": 5038,
      "nif": 5039,
      "td": 5040,
      "vr": 5041,
      "restri": 5042,
      "altitude": 5043,
      "deep": 5044,
      "sitive": 5045,
      "_pa": 5046,
      "_pr": 5047,
      "host_": 5048,
      "raise_": 5049,
      "overwrite": 5050,
      "Engine": 5051,
      "hdf5": 5052,
      "ni": 5053,
      "soft": 5054,
      "vm_": 5055,
      "mac": 5056,
      "mount": 5057,
      "obtain": 5058,
      "apping": 5059,
      "percent": 5060,
      "contra": 5061,
      "processing": 5062,
      "Seri": 5063,
      "implementation": 5064,
      "ASE": 5065,
      "G_": 5066,
      "WN": 5067,
      "uli": 5068,
      "timestep": 5069,
      "source_file": 5070,
      "emit": 5071,
      "licable": 5072,
      "Box": 5073,
      "Style": 5074,
      "/*": 5075,
      "IV": 5076,
      "Ta": 5077,
      "Ter": 5078,
      "ject_": 5079,
      "nb": 5080,
      "rer": 5081,
      "rever": 5082,
      "atures": 5083,
      "still": 5084,
      "context_": 5085,
      "moment": 5086,
      "log10": 5087,
      "useful": 5088,
      "acces": 5089,
      "intercep": 5090,
      "history": 5091,
      "SIZE": 5092,
      "quantity": 5093,
      "directories": 5094,
      "POR": 5095,
      "Stop": 5096,
      "_with": 5097,
      "fout": 5098,
      "happ": 5099,
      "extr": 5100,
      "simp": 5101,
      "dataset_": 5102,
      "charset": 5103,
      "serializ": 5104,
      "visible": 5105,
      "mappings": 5106,
      "Polygon": 5107,
      "39": 5108,
      "RA": 5109,
      "_i": 5110,
      "reach": 5111,
      "liter": 5112,
      "expo": 5113,
      "setattr": 5114,
      "basestring": 5115,
      "outer": 5116,
      "output_file": 5117,
      "field_type": 5118,
      "NVML_ERROR_UN": 5119,
      "Arguments": 5120,
      "Wrap": 5121,
      "gam": 5122,
      "hase": 5123,
      "pts": 5124,
      "urnal": 5125,
      "lice": 5126,
      "creating": 5127,
      "push": 5128,
      "prin": 5129,
      "cipher": 5130,
      "choosers": 5131,
      "---+---+": 5132,
      "OK": 5133,
      "camer": 5134,
      "eg": 5135,
      "wav": 5136,
      "{{": 5137,
      "chron": 5138,
      "apps": 5139,
      "across": 5140,
      "csv_": 5141,
      "fixed": 5142,
      "MENT": 5143,
      "styles": 5144,
      "transformation": 5145,
      "Shut": 5146,
      "Account": 5147,
      "integration": 5148,
      "Instance": 5149,
      "_end": 5150,
      "_keys": 5151,
      "_headers": 5152,
      "dd": 5153,
      "freq": 5154,
      "redirect": 5155,
      "isfile": 5156,
      "something": 5157,
      "accept": 5158,
      "__dict_": 5159,
      "compare": 5160,
      "filtered_": 5161,
      "_search": 5162,
      "URI": 5163,
      "magic": 5164,
      "completed": 5165,
      "ampling": 5166,
      "__dict__": 5167,
      "CR": 5168,
      "Oper": 5169,
      "Syn": 5170,
      "eight": 5171,
      "ences": 5172,
      "iform": 5173,
      "isdir": 5174,
      "sical": 5175,
      "opho": 5176,
      "pot": 5177,
      "_client": 5178,
      "_sol": 5179,
      "dense": 5180,
      "sitecol": 5181,
      "parents": 5182,
      "recogn": 5183,
      "'*": 5184,
      "D2": 5185,
      "_func": 5186,
      "ks": 5187,
      "liquid": 5188,
      "made": 5189,
      "expon": 5190,
      "comments": 5191,
      "ground_": 5192,
      "mlab": 5193,
      "temporary": 5194,
      "explicit": 5195,
      "([[": 5196,
      "relations": 5197,
      "orig_": 5198,
      "Also": 5199,
      "NOT": 5200,
      "Track": 5201,
      "Validate": 5202,
      "Logger": 5203,
      "annotations": 5204,
      ".',": 5205,
      "06": 5206,
      "Mar": 5207,
      "ln": 5208,
      "wb": 5209,
      "x2": 5210,
      "accur": 5211,
      "base64": 5212,
      "dispatch": 5213,
      "Perform": 5214,
      "ategory": 5215,
      "ctivity": 5216,
      "SpiceCell": 5217,
      "eightBit": 5218,
      "ixel": 5219,
      "lst": 5220,
      "fire": 5221,
      "entr": 5222,
      "itute": 5223,
      "phrase": 5224,
      "Names": 5225,
      "allows": 5226,
      "compressed": 5227,
      ")(": 5228,
      "Back": 5229,
      "XX": 5230,
      "bra": 5231,
      "fm": 5232,
      "ftime": 5233,
      "zation": 5234,
      "consu": 5235,
      "predict": 5236,
      "transforms": 5237,
      "ffset": 5238,
      "INI": 5239,
      "segments": 5240,
      "whose": 5241,
      "cookie": 5242,
      "zoom": 5243,
      "NotImplementedError": 5244,
      "Den": 5245,
      "PASS": 5246,
      "Two": 5247,
      "_parse": 5248,
      "cated": 5249,
      "s1": 5250,
      "colorize": 5251,
      "app_name": 5252,
      "immedi": 5253,
      "aving": 5254,
      "menu": 5255,
      "Template": 5256,
      "snapshot": 5257,
      "child_": 5258,
      "199": 5259,
      "Que": 5260,
      "Using": 5261,
      "_max": 5262,
      "pm": 5263,
      "pv": 5264,
      "confirm": 5265,
      "strftime": 5266,
      "quee": 5267,
      "_schema": 5268,
      "compression": 5269,
      "affine": 5270,
      "access_token": 5271,
      "specification": 5272,
      "batch_size": 5273,
      "analysis_period": 5274,
      "fidence": 5275,
      "47": 5276,
      "Av": 5277,
      "_var": 5278,
      "These": 5279,
      "extent": 5280,
      "configure": 5281,
      "queries": 5282,
      "_fon": 5283,
      "LOC": 5284,
      "wraps": 5285,
      "partitions": 5286,
      "exc_info": 5287,
      "Host": 5288,
      "cost_mat": 5289,
      "Description": 5290,
      "happen": 5291,
      "Ev": 5292,
      "QU": 5293,
      "eta": 5294,
      "pb": 5295,
      "pen": 5296,
      "s_dir": 5297,
      "ordin": 5298,
      "wrapped": 5299,
      "expected_": 5300,
      "Inputs": 5301,
      "interpolation": 5302,
      "margin": 5303,
      "3D": 5304,
      "Used": 5305,
      "VR": 5306,
      "_record": 5307,
      "conta": 5308,
      "data_key": 5309,
      "aps": 5310,
      "cases": 5311,
      "computed": 5312,
      "angles": 5313,
      "128": 5314,
      "deleted": 5315,
      "Display": 5316,
      "HDF": 5317,
      "Ip": 5318,
      "^\\": 5319,
      "_W": 5320,
      "c1": 5321,
      "hal": 5322,
      "rates": 5323,
      "slug": 5324,
      "app_": 5325,
      "_score": 5326,
      "resulting": 5327,
      "lower_": 5328,
      "stdin": 5329,
      "subscri": 5330,
      "cumul": 5331,
      "systemat": 5332,
      "concatenate": 5333,
      "PC": 5334,
      "Tot": 5335,
      "cted_": 5336,
      "lots": 5337,
      "pagin": 5338,
      "s_like": 5339,
      "indexes": 5340,
      "plg": 5341,
      "Options": 5342,
      "depths": 5343,
      "Timeout": 5344,
      "remaining": 5345,
      "aggreg": 5346,
      "Current": 5347,
      "96": 5348,
      "EM": 5349,
      "_S": 5350,
      "_k": 5351,
      "_json": 5352,
      "bg": 5353,
      "rm": 5354,
      "uniform": 5355,
      "bus": 5356,
      "fault_": 5357,
      "subnet": 5358,
      "subparser": 5359,
      "agreement": 5360,
      "_rate": 5361,
      "Func": 5362,
      "repeat": 5363,
      "wards": 5364,
      "Form": 5365,
      "Mag": 5366,
      "_parse_": 5367,
      "nor": 5368,
      "route": 5369,
      "cosity": 5370,
      "finite": 5371,
      "play_": 5372,
      "runtime": 5373,
      "MET": 5374,
      "123": 5375,
      "Stream": 5376,
      "poll": 5377,
      "represents": 5378,
      "mug": 5379,
      "whois": 5380,
      "Cap": 5381,
      "Take": 5382,
      "_column": 5383,
      "izer": 5384,
      "leap": 5385,
      "cla": 5386,
      "Remo": 5387,
      "linalg": 5388,
      "applicable": 5389,
      "_sdk": 5390,
      "iter_": 5391,
      "distances": 5392,
      "cleaned": 5393,
      "encryption_sdk": 5394,
      "IndexError": 5395,
      "guess": 5396,
      "aws_encryption_sdk": 5397,
      "GB": 5398,
      "With": 5399,
      "_a": 5400,
      "_lock": 5401,
      "walk": 5402,
      "repo": 5403,
      "legen": 5404,
      "celer": 5405,
      "')[": 5406,
      "perio": 5407,
      "configured": 5408,
      "filenames": 5409,
      "later": 5410,
      "agent": 5411,
      "Creating": 5412,
      "Setting": 5413,
      "imtls": 5414,
      "################": 5415,
      "centile": 5416,
      "legend_": 5417,
      "87": 5418,
      "Pressure": 5419,
      "ison": 5420,
      "timeRange": 5421,
      "spher": 5422,
      "ators": 5423,
      "service_name": 5424,
      "other_": 5425,
      "ported": 5426,
      "Storage": 5427,
      "visual": 5428,
      "attachment": 5429,
      "plot_": 5430,
      "Pub": 5431,
      "bon": 5432,
      "ither": 5433,
      "xrange": 5434,
      "arti": 5435,
      "best_": 5436,
      "]).": 5437,
      "ippe": 5438,
      "solver": 5439,
      "retriev": 5440,
      "CSV": 5441,
      "guest": 5442,
      "TCOD_": 5443,
      "Bin": 5444,
      "_log": 5445,
      "_handle": 5446,
      "_api": 5447,
      "gment": 5448,
      "pres": 5449,
      "usu": 5450,
      "v4": 5451,
      "vmin": 5452,
      "nets": 5453,
      "handles": 5454,
      "correction": 5455,
      "Dire": 5456,
      "Resource": 5457,
      "rane": 5458,
      "ASC": 5459,
      "evaluate": 5460,
      "stddev_types": 5461,
      "extras": 5462,
      "NUM": 5463,
      "Ori": 5464,
      "Top": 5465,
      "_output": 5466,
      "slave": 5467,
      "asn_": 5468,
      "paralle": 5469,
      "Const": 5470,
      "filtered": 5471,
      "dictionaries": 5472,
      "nonce": 5473,
      "verbosity": 5474,
      "VectorTo": 5475,
      "assume": 5476,
      "driver": 5477,
      "handlers": 5478,
      "likelihood": 5479,
      "Tags": 5480,
      "Flag": 5481,
      "WS": 5482,
      "_I": 5483,
      "_tag": 5484,
      "a1": 5485,
      "cVectorTo": 5486,
      "}/": 5487,
      "alth": 5488,
      "anom": 5489,
      "locked": 5490,
      "confidence": 5491,
      "itself": 5492,
      "_cor": 5493,
      "cip": 5494,
      "canv": 5495,
      "shown": 5496,
      "\"]:": 5497,
      "previous_": 5498,
      "lank": 5499,
      "(?:": 5500,
      "Unicode": 5501,
      "ophote": 5502,
      "cVectorToPython": 5503,
      "94": 5504,
      "MS": 5505,
      "_imp": 5506,
      "mr": 5507,
      "rv": 5508,
      "dian": 5509,
      "ently": 5510,
      "_pl": 5511,
      "imls": 5512,
      "reading": 5513,
      "refs": 5514,
      "ternal_": 5515,
      "DataBase": 5516,
      "_process": 5517,
      "\"][\"": 5518,
      "grid_": 5519,
      "output_path": 5520,
      "p_todo": 5521,
      "nonzero": 5522,
      "feature_": 5523,
      "Boolean": 5524,
      "Buil": 5525,
      "dry_": 5526,
      "approx": 5527,
      "Validation": 5528,
      "ruptures": 5529,
      "executable": 5530,
      "Directory": 5531,
      ".\",": 5532,
      "Doc": 5533,
      "har": 5534,
      "constructor": 5535,
      "one_": 5536,
      "prepare": 5537,
      "subsystem": 5538,
      "grade": 5539,
      "queeze": 5540,
      "97": 5541,
      "PRE": 5542,
      "uff": 5543,
      "w_": 5544,
      "unexpected": 5545,
      "Exist": 5546,
      "base_url": 5547,
      "transpose": 5548,
      "Coun": 5549,
      "actually": 5550,
      "ALL": 5551,
      "regions": 5552,
      "Called": 5553,
      "synerror": 5554,
      "bian": 5555,
      "aperture": 5556,
      "Windows": 5557,
      "_properties": 5558,
      "*=": 5559,
      "360": 5560,
      "_0": 5561,
      "_results": 5562,
      "fq": 5563,
      "know": 5564,
      "seen": 5565,
      "organ": 5566,
      "detic": 5567,
      "noti": 5568,
      "props": 5569,
      "ances": 5570,
      "started": 5571,
      "_scal": 5572,
      "_scale": 5573,
      "_in_": 5574,
      "_prob": 5575,
      "colormap": 5576,
      "offsets": 5577,
      "NOTE": 5578,
      "address_": 5579,
      "smooth": 5580,
      "------+": 5581,
      "DS": 5582,
      "NG": 5583,
      "cript": 5584,
      "dns": 5585,
      "rs": 5586,
      "ux": 5587,
      "sertion": 5588,
      "_input_": 5589,
      "_initi": 5590,
      "overflow": 5591,
      "viewer": 5592,
      "locale": 5593,
      "Keys": 5594,
      "holder": 5595,
      "completion": 5596,
      "~~~~": 5597,
      "degree": 5598,
      "Queue": 5599,
      "([\"": 5600,
      "_as": 5601,
      "horizontal": 5602,
      "mass": 5603,
      "repertoire": 5604,
      "sender": 5605,
      "rowser": 5606,
      "correlation": 5607,
      "INVALID": 5608,
      "descript": 5609,
      "slices": 5610,
      "Specifies": 5611,
      "derived": 5612,
      "plots": 5613,
      "Oc": 5614,
      "]],": 5615,
      "_instance": 5616,
      "_on_": 5617,
      "rh": 5618,
      "tter": 5619,
      "y1": 5620,
      "|=": 5621,
      "vest": 5622,
      "modes": 5623,
      "wever": 5624,
      "_sn": 5625,
      "comput": 5626,
      "quire": 5627,
      "extra_": 5628,
      "Diameter": 5629,
      "lugin": 5630,
      "id_col": 5631,
      "SIG": 5632,
      "registered": 5633,
      "solar": 5634,
      "_create": 5635,
      "Height": 5636,
      "Print": 5637,
      "fallback": 5638,
      "human": 5639,
      "reversed": 5640,
      ",))": 5641,
      "Plot": 5642,
      "slic": 5643,
      "xmin": 5644,
      "ory_": 5645,
      "dip": 5646,
      "shorth": 5647,
      "dicts": 5648,
      "interpre": 5649,
      "again": 5650,
      "SSL": 5651,
      "clientID": 5652,
      "occ": 5653,
      "2000": 5654,
      "coefs": 5655,
      "Authenti": 5656,
      "BO": 5657,
      "Bar": 5658,
      "_write": 5659,
      "blank": 5660,
      "clock": 5661,
      "ymax": 5662,
      "lear": 5663,
      "ingle": 5664,
      "subst": 5665,
      "ttle": 5666,
      "strike": 5667,
      "model_obj": 5668,
      "separated": 5669,
      "Maximum": 5670,
      "Edge": 5671,
      "footprint": 5672,
      "+--------": 5673,
      "Flu": 5674,
      "Rate": 5675,
      "YA": 5676,
      "]=": 5677,
      "_D": 5678,
      "_min": 5679,
      "rg": 5680,
      "vmax": 5681,
      "ypy": 5682,
      "zmq": 5683,
      "moun": 5684,
      "(':": 5685,
      "_pop": 5686,
      "neare": 5687,
      "_can": 5688,
      "ips": 5689,
      "y_true": 5690,
      "defines": 5691,
      "zone_id": 5692,
      "particular": 5693,
      "depends": 5694,
      "ROM": 5695,
      "Neur": 5696,
      "Params": 5697,
      "ImportError": 5698,
      "agreement_id": 5699,
      "ShutIt": 5700,
      "firewall": 5701,
      "frequency": 5702,
      "tan": 5703,
      "uation": 5704,
      "xs": 5705,
      "}')": 5706,
      "losses": 5707,
      "datastore": 5708,
      "mosa": 5709,
      "sug": 5710,
      "boto": 5711,
      "found_": 5712,
      "wee": 5713,
      "Defin": 5714,
      "scrip": 5715,
      "Comple": 5716,
      "sider": 5717,
      "Component": 5718,
      "'#": 5719,
      "'<": 5720,
      "Dif": 5721,
      "End": 5722,
      "_extract_": 5723,
      "gy": 5724,
      "develo": 5725,
      "tect": 5726,
      "roles": 5727,
      "laci": 5728,
      "lying": 5729,
      "alive": 5730,
      "special": 5731,
      "corner": 5732,
      "Pose": 5733,
      "bounding": 5734,
      "constraints": 5735,
      "dynamic": 5736,
      "master_": 5737,
      "lacian": 5738,
      "(.": 5739,
      ")-": 5740,
      "+'": 5741,
      "Cop": 5742,
      "Go": 5743,
      "Mis": 5744,
      "USER": 5745,
      "Wa": 5746,
      "YY": 5747,
      "YHSM": 5748,
      "_un": 5749,
      "ward_": 5750,
      "xmax": 5751,
      "invo": 5752,
      "repli": 5753,
      "atal": 5754,
      "dig": 5755,
      "hoo": 5756,
      "iterations": 5757,
      "generic": 5758,
      "good": 5759,
      "connectivity": 5760,
      "xyz": 5761,
      "db_": 5762,
      "connections": 5763,
      "FORMAT": 5764,
      "square": 5765,
      "Density": 5766,
      "%%": 5767,
      "'':": 5768,
      "Ag": 5769,
      "\\\"": 5770,
      "_by_": 5771,
      "cuto": 5772,
      "hr": 5773,
      "tmu": 5774,
      "ind_": 5775,
      "dered_": 5776,
      "today": 5777,
      "trt": 5778,
      "mogen": 5779,
      "('.')": 5780,
      "nps": 5781,
      "_spacing": 5782,
      "sub_": 5783,
      "phone": 5784,
      "works": 5785,
      "workers": 5786,
      "spiceypy": 5787,
      "operationMode": 5788,
      "diffusion": 5789,
      "Converts": 5790,
      "audio": 5791,
      "duplicate": 5792,
      "Delta": 5793,
      "84": 5794,
      "NR": 5795,
      "Port": 5796,
      "PATH": 5797,
      "Ren": 5798,
      "Ste": 5799,
      "_factor": 5800,
      "border": 5801,
      "atable": 5802,
      "_password": 5803,
      "':'": 5804,
      "version_info": 5805,
      "deploy": 5806,
      "identifiers": 5807,
      "fullname": 5808,
      "numerical": 5809,
      "resolver": 5810,
      "remote_": 5811,
      "neurite_type": 5812,
      "velocity": 5813,
      "Symbol": 5814,
      "strain": 5815,
      "centroid": 5816,
      "HttpResponse": 5817,
      "Draw": 5818,
      "GR": 5819,
      "PRO": 5820,
      "Su": 5821,
      "Spli": 5822,
      "_val": 5823,
      "hm": 5824,
      "three": 5825,
      "ches": 5826,
      "unless": 5827,
      "img_": 5828,
      "background_": 5829,
      "working": 5830,
      "startTime": 5831,
      "docstring": 5832,
      "Direction": 5833,
      "Post": 5834,
      "structures": 5835,
      "encrypt": 5836,
      "occurrence": 5837,
      "ICE": 5838,
      "determined": 5839,
      "categorical": 5840,
      "SMTP": 5841,
      "whole": 5842,
      "_scope": 5843,
      "Events": 5844,
      "86": 5845,
      "BL": 5846,
      "HEAD": 5847,
      "Save": 5848,
      "_function": 5849,
      "qs": 5850,
      "stim": 5851,
      "term_": 5852,
      "nest_": 5853,
      "obsr": 5854,
      "locals": 5855,
      "octe": 5856,
      "depending": 5857,
      "hazardlib": 5858,
      "obsrvr": 5859,
      "Fields": 5860,
      "];": 5861,
      "_v": 5862,
      "_line": 5863,
      "fro": 5864,
      "hi": 5865,
      "lit": 5866,
      "div": 5867,
      "name_": 5868,
      "ess_": 5869,
      "Rece": 5870,
      "listen": 5871,
      "outside": 5872,
      "(\"-": 5873,
      "curr": 5874,
      "backup": 5875,
      "loader": 5876,
      "dependency": 5877,
      "builder": 5878,
      "NOT_": 5879,
      "fails": 5880,
      "Some": 5881,
      "ellipsoid": 5882,
      "Container": 5883,
      "klass": 5884,
      "gamma": 5885,
      "shorthand": 5886,
      "_depth": 5887,
      "__init_": 5888,
      "cd": 5889,
      "scan": 5890,
      "instr": 5891,
      "sures": 5892,
      "cir": 5893,
      "prices": 5894,
      "button": 5895,
      "CODE": 5896,
      "tensors": 5897,
      "metavar": 5898,
      "keywords": 5899,
      "candidates": 5900,
      "Retriev": 5901,
      "cleaned_data": 5902,
      "(``": 5903,
      "Action": 5904,
      "LA": 5905,
      "MM": 5906,
      "Sta": 5907,
      "Sim": 5908,
      "Wik": 5909,
      "gdb": 5910,
      "yno": 5911,
      "inplace": 5912,
      "tives": 5913,
      "copi": 5914,
      "float64": 5915,
      "_ind": 5916,
      "Dec": 5917,
      "responses": 5918,
      "ird": 5919,
      "climlab": 5920,
      "servers": 5921,
      "random_state": 5922,
      "Verify": 5923,
      "utf8": 5924,
      "attempt": 5925,
      "nifti": 5926,
      "ASCII": 5927,
      "__init__": 5928,
      "Fo": 5929,
      "IR": 5930,
      "[\\": 5931,
      "_body": 5932,
      "dm": 5933,
      "gle": 5934,
      "ited": 5935,
      "lstrip": 5936,
      "nat": 5937,
      "ardi": 5938,
      "urbul": 5939,
      "defs": 5940,
      "construct": 5941,
      "sib": 5942,
      "s_to": 5943,
      "checked": 5944,
      "west": 5945,
      "formul": 5946,
      "word_": 5947,
      "SELE": 5948,
      "n_values": 5949,
      "served": 5950,
      "show_": 5951,
      "custom_": 5952,
      "threshol": 5953,
      "derivative": 5954,
      "mixing": 5955,
      "collect": 5956,
      "500": 5957,
      "Cache": 5958,
      "IT": 5959,
      "KNO": 5960,
      "dl": 5961,
      "wid": 5962,
      "ymin": 5963,
      "relate": 5964,
      "med_": 5965,
      "adv": 5966,
      "pointer": 5967,
      "cally": 5968,
      "raw_data": 5969,
      "Union": 5970,
      "Addition": 5971,
      "multipli": 5972,
      "UTF": 5973,
      "keep_": 5974,
      "templates": 5975,
      "Row": 5976,
      "routine": 5977,
      "Distance": 5978,
      "SELECT": 5979,
      "KNOWN": 5980,
      "FC": 5981,
      "Java": 5982,
      "PDF": 5983,
      "b2": 5984,
      "mig": 5985,
      "stro": 5986,
      "external_": 5987,
      "verti": 5988,
      "format_": 5989,
      "****": 5990,
      "compil": 5991,
      "workflow": 5992,
      "ALI": 5993,
      "Stand": 5994,
      "_batch": 5995,
      "Weight": 5996,
      "hours": 5997,
      "bitr": 5998,
      "combined": 5999,
      "YAML": 6000,
      "Auto": 6001,
      "dP": 6002,
      "lds": 6003,
      "ny": 6004,
      "pap": 6005,
      "ral": 6006,
      "squeeze": 6007,
      "vc": 6008,
      "\"\")": 6009,
      "asn": 6010,
      "Reyno": 6011,
      "s_file": 6012,
      "qual": 6013,
      "container_": 6014,
      "Local": 6015,
      "Attach": 6016,
      "windows": 6017,
      "relationship": 6018,
      "3333": 6019,
      "Tracked": 6020,
      "describing": 6021,
      ".'.": 6022,
      "Api": 6023,
      "Cho": 6024,
      "Custom": 6025,
      "UP": 6026,
      "UID": 6027,
      "slim": 6028,
      "forward": 6029,
      "exe": 6030,
      "listener": 6031,
      "s_name": 6032,
      "statements": 6033,
      "centers": 6034,
      "Anal": 6035,
      "SSH": 6036,
      "support_": 6037,
      "indicating": 6038,
      "directed": 6039,
      "_price": 6040,
      "VERSION": 6041,
      "plaintext": 6042,
      "_python": 6043,
      "'{}'": 6044,
      "Origin": 6045,
      "CP": 6046,
      "cab": 6047,
      "mor": 6048,
      "nick": 6049,
      "pp": 6050,
      "ptr": 6051,
      "yiel": 6052,
      "fits": 6053,
      "colnum": 6054,
      "logic": 6055,
      "newline": 6056,
      "placeholder": 6057,
      "ordering": 6058,
      "required_": 6059,
      "_tree": 6060,
      "syntax": 6061,
      "fonts": 6062,
      "Determines": 6063,
      "decimal": 6064,
      "verify_": 6065,
      "Limit": 6066,
      "Ca": 6067,
      "gz": 6068,
      "sma": 6069,
      "oring": 6070,
      "isophote": 6071,
      "topo": 6072,
      "urllib": 6073,
      "linewidth": 6074,
      "Dep": 6075,
      "loading": 6076,
      "[:]": 6077,
      "authoriz": 6078,
      "rong": 6079,
      "terminal": 6080,
      "Checks": 6081,
      "redential": 6082,
      "_callback": 6083,
      "Ellip": 6084,
      ",\\": 6085,
      "74": 6086,
      "Access": 6087,
      "Folder": 6088,
      "bq": 6089,
      "jav": 6090,
      "independent": 6091,
      "endian": 6092,
      "respec": 6093,
      "exper": 6094,
      "ked_": 6095,
      "optionally": 6096,
      "entire": 6097,
      "heading": 6098,
      "finity": 6099,
      "translate": 6100,
      "_series": 6101,
      "segment_": 6102,
      "dename": 6103,
      "includes": 6104,
      "Gets": 6105,
      "md5": 6106,
      "aligned": 6107,
      "compatible": 6108,
      "Integer": 6109,
      "bitrary": 6110,
      "_ST": 6111,
      "dst_": 6112,
      "lab": 6113,
      "solution": 6114,
      "ince": 6115,
      "ion_type": 6116,
      "conti": 6117,
      "mag_": 6118,
      "Tran": 6119,
      "001": 6120,
      "stars": 6121,
      "cast_": 6122,
      "overlay": 6123,
      "_regex": 6124,
      "integers": 6125,
      "chunk_size": 6126,
      "better": 6127,
      "initial_": 6128,
      "Raw": 6129,
      "limited": 6130,
      "retry_count": 6131,
      "VALUE": 6132,
      "OSError": 6133,
      "_close": 6134,
      "Crane": 6135,
      "Emp": 6136,
      "Met": 6137,
      "Main": 6138,
      "_or": 6139,
      "iver": 6140,
      "ims": 6141,
      "ume": 6142,
      "x00": 6143,
      "ene": 6144,
      "dedic": 6145,
      "lect": 6146,
      "nothing": 6147,
      "cture": 6148,
      "simul": 6149,
      "itch": 6150,
      "boo": 6151,
      "checking": 6152,
      "numberOf": 6153,
      "lengths": 6154,
      "geodetic": 6155,
      "closing": 6156,
      "provides": 6157,
      "non_": 6158,
      "Stru": 6159,
      "volumes": 6160,
      "Apply": 6161,
      "00000": 6162,
      "SUID": 6163,
      "underlying": 6164,
      "--------------------------------": 6165,
      "coeffs": 6166,
      "allenge": 6167,
      "sentence": 6168,
      "Avail": 6169,
      "INVALID_": 6170,
      ">'": 6171,
      "USE": 6172,
      "_address": 6173,
      "_template": 6174,
      "gress": 6175,
      "rrup": 6176,
      "sis": 6177,
      "tk": 6178,
      "ylabel": 6179,
      "ines": 6180,
      "chor": 6181,
      "appe": 6182,
      "')]": 6183,
      "sensor": 6184,
      "-----------": 6185,
      "extracted": 6186,
      "makedirs": 6187,
      "parse_args": 6188,
      "modify": 6189,
      "TRAN": 6190,
      "Interval": 6191,
      "voidage": 6192,
      "experim": 6193,
      "EP": 6194,
      "f2": 6195,
      "swi": 6196,
      "if_": 6197,
      "resize": 6198,
      "outfile": 6199,
      "instanti": 6200,
      "_csv": 6201,
      "_sample": 6202,
      "Adds": 6203,
      "makes": 6204,
      "vocab": 6205,
      "forums": 6206,
      "Configuration": 6207,
      "MPLE": 6208,
      "estimate": 6209,
      "assumed": 6210,
      "optimize": 6211,
      "PSF": 6212,
      "genotype": 6213,
      "Total": 6214,
      "frozen": 6215,
      "AD_": 6216,
      "DA": 6217,
      "TABLE": 6218,
      "Us": 6219,
      "UST": 6220,
      "_is": 6221,
      "_param": 6222,
      "cwd": 6223,
      "fu": 6224,
      "spect": 6225,
      "tou": 6226,
      "ident": 6227,
      "proto": 6228,
      "com_": 6229,
      "reads": 6230,
      "answer": 6231,
      "ayload": 6232,
      "_section": 6233,
      "Position": 6234,
      "performance": 6235,
      "epochs": 6236,
      "recipi": 6237,
      "billing": 6238,
      "RenderModel": 6239,
      "deepcopy": 6240,
      "$',": 6241,
      "76": 6242,
      "ISO": 6243,
      "MN": 6244,
      "_lines": 6245,
      "hidden": 6246,
      "ii": 6247,
      "m1": 6248,
      "pP": 6249,
      "y2": 6250,
      "cour": 6251,
      "asset_": 6252,
      "etree": 6253,
      "_init": 6254,
      "group_id": 6255,
      "mapped": 6256,
      "index_": 6257,
      "splitext": 6258,
      "client_": 6259,
      "emit_": 6260,
      "replacement": 6261,
      "manual": 6262,
      "emptyDoubleVector": 6263,
      "radiance": 6264,
      "separate": 6265,
      "Writer": 6266,
      "deviation": 6267,
      "fqdn": 6268,
      "Split": 6269,
      "'|": 6270,
      ".:": 6271,
      "Hy": 6272,
      "PG": 6273,
      "scape": 6274,
      "inner": 6275,
      "art": 6276,
      "isn": 6277,
      "dit": 6278,
      "csr": 6279,
      "findall": 6280,
      "lambda_": 6281,
      "sideB": 6282,
      "IPE": 6283,
      "SUC": 6284,
      "legal": 6285,
      "legacy": 6286,
      "TYPE_": 6287,
      "gradient_": 6288,
      "ategy": 6289,
      "consumer": 6290,
      "intercept_": 6291,
      "canvas": 6292,
      "(('": 6293,
      "FROM": 6294,
      "Mer": 6295,
      "aco": 6296,
      "gi": 6297,
      "rather": 6298,
      "inver": 6299,
      "ato": 6300,
      "urface": 6301,
      "riers": 6302,
      "()),": 6303,
      "Replace": 6304,
      "sensitive": 6305,
      "model_name": 6306,
      "interactive": 6307,
      "portal": 6308,
      "prefixes": 6309,
      "green": 6310,
      "MessageType": 6311,
      "described": 6312,
      "WARNING": 6313,
      "Reynolds": 6314,
      "56": 6315,
      "IS": 6316,
      "_number": 6317,
      "fh": 6318,
      "fatal": 6319,
      "href": 6320,
      "mtime": 6321,
      "p2": 6322,
      "theme": 6323,
      "sively": 6324,
      "ential": 6325,
      "ORD": 6326,
      "[::-": 6327,
      "hashlib": 6328,
      "FIX": 6329,
      "MPL": 6330,
      "threads": 6331,
      "account_id": 6332,
      "ensure_": 6333,
      "glyphs": 6334,
      "blue": 6335,
      "smaller": 6336,
      "camera": 6337,
      "leap_year": 6338,
      "*.": 6339,
      ".%": 6340,
      "Ass": 6341,
      "Mass": 6342,
      "Red": 6343,
      "](": 6344,
      "_e": 6345,
      "_server": 6346,
      "_validate_": 6347,
      "}]": 6348,
      "stage": 6349,
      "decoding": 6350,
      "abc": 6351,
      "arger": 6352,
      "Ref": 6353,
      "doc_": 6354,
      "persist": 6355,
      "INTER": 6356,
      "1016": 6357,
      "shutil": 6358,
      "identify": 6359,
      "effe": 6360,
      "stop_": 6361,
      "end_time": 6362,
      "infer": 6363,
      "estimation": 6364,
      "helpers": 6365,
      "rows_to_alts": 6366,
      "orientation": 6367,
      "parallel": 6368,
      "#/*": 6369,
      "120": 6370,
      "=['": 6371,
      "Offset": 6372,
      "Stim": 6373,
      "TpP": 6374,
      "_form": 6375,
      "_update": 6376,
      "_content": 6377,
      "dle": 6378,
      "arbitrary": 6379,
      "tell": 6380,
      "consider": 6381,
      "ado": 6382,
      "resample": 6383,
      "paas": 6384,
      "paces": 6385,
      "comma": 6386,
      "_cli": 6387,
      "readable": 6388,
      "_policy": 6389,
      "fitness": 6390,
      "Both": 6391,
      "stride": 6392,
      "additional_": 6393,
      "dicom_input": 6394,
      "indicate": 6395,
      "hazard_": 6396,
      "executed": 6397,
      "whitespace": 6398,
      "increment": 6399,
      "predicted": 6400,
      "usually": 6401,
      "mosaic": 6402,
      "TpPd": 6403,
      ")^": 6404,
      ")^{": 6405,
      "OF": 6406,
      "US": 6407,
      "b1": 6408,
      "gzip": 6409,
      "subs": 6410,
      "checkpoint": 6411,
      "runner": 6412,
      "anything": 6413,
      "license": 6414,
      "latest": 6415,
      "handled": 6416,
      "module_name": 6417,
      "mbly": 6418,
      "TEX": 6419,
      "enums": 6420,
      "represent": 6421,
      "Algorithm": 6422,
      "mesType": 6423,
      "compatibility": 6424,
      "Connection": 6425,
      "Types": 6426,
      "Who": 6427,
      "_o": 6428,
      "bval": 6429,
      "k1": 6430,
      "zed": 6431,
      "inc": 6432,
      "std_": 6433,
      "adjac": 6434,
      "int32": 6435,
      "phy": 6436,
      "writing": 6437,
      "\"][": 6438,
      "Produ": 6439,
      "normalization": 6440,
      "hashes": 6441,
      "sky": 6442,
      "laplacian": 6443,
      "key_handle": 6444,
      "regexp": 6445,
      "Link": 6446,
      "exactly": 6447,
      "Cloud": 6448,
      "sequences": 6449,
      "support_types": 6450,
      "Available": 6451,
      "SUCCESS": 6452,
      "=\\": 6453,
      "Fit": 6454,
      "Plat": 6455,
      "Raster": 6456,
      "WH": 6457,
      "_F": 6458,
      "_message": 6459,
      "a_per": 6460,
      "dW": 6461,
      "dum": 6462,
      "eper": 6463,
      "p0": 6464,
      "redirect_": 6465,
      "deserialize": 6466,
      "nost": 6467,
      "noun": 6468,
      "']),": 6469,
      "prote": 6470,
      "question": 6471,
      "creates": 6472,
      "column_name": 6473,
      "ferenti": 6474,
      "topics": 6475,
      "_percent": 6476,
      "justify": 6477,
      "Texture": 6478,
      "declarations": 6479,
      "ellipse": 6480,
      "order_by": 6481,
      "phot": 6482,
      "h5file": 6483,
      "chronous": 6484,
      "3x3": 6485,
      "42": 6486,
      "EFF": 6487,
      "\\'": 6488,
      "_row": 6489,
      "dra": 6490,
      "))))": 6491,
      "witter": 6492,
      "clone": 6493,
      "pow": 6494,
      "s__": 6495,
      "creation": 6496,
      "transformed": 6497,
      "aker": 6498,
      "bounding_": 6499,
      "Attributes": 6500,
      "Callable": 6501,
      "plugins": 6502,
      "sha1": 6503,
      "expanduser": 6504,
      "Initialize": 6505,
      "zzle": 6506,
      "Retrieves": 6507,
      "appear": 6508,
      "'},": 6509,
      ")?": 6510,
      "AUT": 6511,
      "MAP": 6512,
      "Tftp": 6513,
      "_method": 6514,
      "cb": 6515,
      "eD": 6516,
      "gsi": 6517,
      "yes": 6518,
      "unic": 6519,
      "ital": 6520,
      "laz": 6521,
      "subtra": 6522,
      "subcommand": 6523,
      "descr": 6524,
      "SEC": 6525,
      "_condition": 6526,
      "solve": 6527,
      "alignment": 6528,
      "OverlayHandle": 6529,
      "Skip": 6530,
      "Area": 6531,
      "sentry_": 6532,
      "ValidationError": 6533,
      "nearest": 6534,
      "TrackedDevice": 6535,
      "Usage": 6536,
      "photutils": 6537,
      "Either": 6538,
      "Task": 6539,
      "_3": 6540,
      "vhost": 6541,
      "ink": 6542,
      "ined": 6543,
      "relev": 6544,
      "unct": 6545,
      "sil": 6546,
      "be_": 6547,
      "_pipe": 6548,
      "Required": 6549,
      "percentile": 6550,
      "map_": 6551,
      "transfor": 6552,
      "Proxy": 6553,
      "operations": 6554,
      "riging": 6555,
      "networkId": 6556,
      "task_": 6557,
      "_dirs": 6558,
      "text_type": 6559,
      "disabled": 6560,
      "MAX_": 6561,
      "rows_to_obs": 6562,
      "composite": 6563,
      "trigger": 6564,
      "cancel": 6565,
      "METAD": 6566,
      "Constant": 6567,
      "suggest": 6568,
      "08": 6569,
      "Mapping": 6570,
      "bel": 6571,
      "xlabel": 6572,
      "sect": 6573,
      "rices": 6574,
      "taken": 6575,
      "subplot": 6576,
      "backend_": 6577,
      "caller": 6578,
      "REP": 6579,
      "replaced": 6580,
      "corresponds": 6581,
      "google_fon": 6582,
      "voxelspacing": 6583,
      "middle": 6584,
      "embedding": 6585,
      "grouped_": 6586,
      "approxim": 6587,
      "com_google_fon": 6588,
      "METADATA": 6589,
      "'[": 6590,
      "({})": 6591,
      ",),": 6592,
      "PIPE": 6593,
      "_date": 6594,
      "_upper": 6595,
      "iri": 6596,
      "inds": 6597,
      "state_": 6598,
      "isnull": 6599,
      "challenge": 6600,
      "aside": 6601,
      "()`": 6602,
      "('<": 6603,
      "Rest": 6604,
      "buff": 6605,
      "_sk": 6606,
      "_slice": 6607,
      "Decode": 6608,
      "validator": 6609,
      "display_": 6610,
      "ONE": 6611,
      "ARGU": 6612,
      "_rel": 6613,
      "Handles": 6614,
      "volume_id": 6615,
      "register_": 6616,
      "ampl": 6617,
      "measured": 6618,
      "Close": 6619,
      "GIS": 6620,
      "Execute": 6621,
      "fmt_": 6622,
      "Wait": 6623,
      "AUTH": 6624,
      "/'": 6625,
      "Mix": 6626,
      "Pandas": 6627,
      "S3": 6628,
      "_color": 6629,
      "_emit_": 6630,
      "bridge": 6631,
      "dag": 6632,
      "md_": 6633,
      "inher": 6634,
      "reply": 6635,
      "onto": 6636,
      "ename": 6637,
      "little": 6638,
      "mater": 6639,
      "get_current_": 6640,
      "_center": 6641,
      "submit": 6642,
      "circ": 6643,
      "tempfile": 6644,
      "irradiance": 6645,
      "Now": 6646,
      "passing": 6647,
      "various": 6648,
      "_provider": 6649,
      "127": 6650,
      "Attemp": 6651,
      "tests": 6652,
      "identified": 6653,
      "fluence": 6654,
      "emails": 6655,
      "'/'": 6656,
      "Items": 6657,
      "_prefixes": 6658,
      "Generates": 6659,
      "COLUM": 6660,
      "Visual": 6661,
      "_solver": 6662,
      "Email": 6663,
      "Ids": 6664,
      "IPython": 6665,
      "Phase": 6666,
      "SN": 6667,
      "_as_": 6668,
      "cpu": 6669,
      "credential": 6670,
      "dal": 6671,
      "eid": 6672,
      "lb": 6673,
      "larger": 6674,
      "{:": 6675,
      "chro": 6676,
      "rast": 6677,
      "rich": 6678,
      "))**": 6679,
      "matrices": 6680,
      "fileName": 6681,
      "Rect": 6682,
      "Redirect": 6683,
      "get_mean_": 6684,
      "cepts": 6685,
      "{}\\": 6686,
      "'.'": 6687,
      "plus": 6688,
      "URLs": 6689,
      "weighted": 6690,
      "notebook": 6691,
      "and_stddevs": 6692,
      "Formatter": 6693,
      "COLS": 6694,
      "princip": 6695,
      "transformed_": 6696,
      "*\\": 6697,
      "Lib": 6698,
      "PIN": 6699,
      "Simple": 6700,
      "_env": 6701,
      "_buffer": 6702,
      "bve": 6703,
      "oauth": 6704,
      "paper": 6705,
      "ertifi": 6706,
      "ant_": 6707,
      "ceeded": 6708,
      "_pk": 6709,
      "sos_": 6710,
      "bour": 6711,
      "coming": 6712,
      "fast": 6713,
      "extre": 6714,
      "_inte": 6715,
      "updates": 6716,
      "----------+": 6717,
      "_seg": 6718,
      "ency_": 6719,
      "widths": 6720,
      "_folder": 6721,
      "bias": 6722,
      "nests": 6723,
      "account_": 6724,
      "footer": 6725,
      "hdfs": 6726,
      "Axes": 6727,
      "get_mean_and_stddevs": 6728,
      "\"+": 6729,
      "98": 6730,
      "AV": 6731,
      "Dar": 6732,
      "Fix": 6733,
      "Na": 6734,
      "Show": 6735,
      "_labels": 6736,
      "_groups": 6737,
      "blen": 6738,
      "icon": 6739,
      "jvm_": 6740,
      "vul": 6741,
      "vsi": 6742,
      "invoice": 6743,
      "onic": 6744,
      "urther": 6745,
      "tour": 6746,
      "dial": 6747,
      "validity": 6748,
      "cio": 6749,
      "Then": 6750,
      "extractor": 6751,
      "calculations": 6752,
      "ENT": 6753,
      "failure": 6754,
      "snippe": 6755,
      "specifying": 6756,
      "authenticated": 6757,
      "indicates": 6758,
      "ArgumentParser": 6759,
      "Lines": 6760,
      "expires": 6761,
      "diagonal": 6762,
      "ascending": 6763,
      "finished": 6764,
      "recipe": 6765,
      "neighbors": 6766,
      "Additional": 6767,
      "78": 6768,
      ":],": 6769,
      "Gaussian": 6770,
      "hide": 6771,
      "ij": 6772,
      "inline": 6773,
      "deli": 6774,
      "toler": 6775,
      "trust": 6776,
      "mot": 6777,
      "dom": 6778,
      "launch": 6779,
      "```": 6780,
      "figsize": 6781,
      "functioncode": 6782,
      "gence": 6783,
      "implicit": 6784,
      "...,": 6785,
      "Keyword": 6786,
      "AL_": 6787,
      "alphab": 6788,
      "_constructor": 6789,
      "TYPES": 6790,
      "decrypt": 6791,
      "shared_": 6792,
      "vips_": 6793,
      "IpAddress": 6794,
      "NUMB": 6795,
      "\">": 6796,
      "./": 6797,
      "Af": 6798,
      "ET": 6799,
      "Gu": 6800,
      "MT": 6801,
      "OCL": 6802,
      "Test": 6803,
      "_logger": 6804,
      "_FI": 6805,
      "_build_": 6806,
      "`)": 6807,
      "ast_": 6808,
      "browser": 6809,
      "dpi": 6810,
      "nrows": 6811,
      "ug": 6812,
      "z_": 6813,
      "ulOverlayHandle": 6814,
      "()])": 6815,
      "upgrade": 6816,
      "quality": 6817,
      "pected": 6818,
      "acket": 6819,
      "_sup": 6820,
      "Expected": 6821,
      "shot": 6822,
      "group_col": 6823,
      "interfaces": 6824,
      "unity": 6825,
      "calculating": 6826,
      "fontSize": 6827,
      "correspond": 6828,
      "cleanup": 6829,
      "Lookup": 6830,
      "accessible": 6831,
      "Wrapper": 6832,
      "Missing": 6833,
      "Metadata": 6834,
      "TRANS": 6835,
      "93": 6836,
      ":\"": 6837,
      "Fet": 6838,
      "OUT": 6839,
      "Pop": 6840,
      "Sum": 6841,
      "_parameters": 6842,
      "eas": 6843,
      "gc": 6844,
      "hits": 6845,
      "enough": 6846,
      "tid": 6847,
      "ifice": 6848,
      "json_data": 6849,
      "atios": 6850,
      "opened": 6851,
      "_pool": 6852,
      "_task": 6853,
      "meta_": 6854,
      "Bound": 6855,
      "404": 6856,
      "CHAR": 6857,
      "everything": 6858,
      "accounts": 6859,
      "ierarch": 6860,
      "constraint": 6861,
      "Left": 6862,
      "criter": 6863,
      "Partition": 6864,
      "exposure": 6865,
      "consume": 6866,
      "half": 6867,
      "ALIZ": 6868,
      "2f": 6869,
      "NOR": 6870,
      "_find_": 6871,
      "catch": 6872,
      "fut": 6873,
      "hw": 6874,
      "ience": 6875,
      "kv": 6876,
      "m2": 6877,
      "n1": 6878,
      "seu": 6879,
      "reset_": 6880,
      "aler": 6881,
      "chn": 6882,
      "constru": 6883,
      "))[": 6884,
      "_pair": 6885,
      "']):": 6886,
      "itable": 6887,
      "provid": 6888,
      "(\"/": 6889,
      "feed": 6890,
      "minutes": 6891,
      "newaxis": 6892,
      "Internal": 6893,
      "Condition": 6894,
      "aves": 6895,
      "splits": 6896,
      "serialization": 6897,
      "networks": 6898,
      "_CON": 6899,
      "standardi": 6900,
      "method_name": 6901,
      "query_params": 6902,
      "correctly": 6903,
      "Heat": 6904,
      "overrides": 6905,
      "diagnost": 6906,
      "neighbour": 6907,
      "Select": 6908,
      "hypergraph": 6909,
      "'(": 6910,
      "58": 6911,
      "Gue": 6912,
      "M_": 6913,
      "_query": 6914,
      "gf": 6915,
      "having": 6916,
      "mir": 6917,
      "tb": 6918,
      "ylim": 6919,
      "ana": 6920,
      "entropy": 6921,
      "d_to_": 6922,
      "itu": 6923,
      "never": 6924,
      "past": 6925,
      "quad": 6926,
      "four": 6927,
      "sphere": 6928,
      "subject_": 6929,
      "{}:": 6930,
      "emon": 6931,
      "([(": 6932,
      "graphic": 6933,
      "mtx": 6934,
      "NotExist": 6935,
      "resolved": 6936,
      "asyncio": 6937,
      "SUP": 6938,
      "histograms": 6939,
      "edit_": 6940,
      "Labels": 6941,
      "assembly": 6942,
      "comparison": 6943,
      "accuracy": 6944,
      "copied": 6945,
      "multiplier": 6946,
      ")\")": 6947,
      "51": 6948,
      "L2": 6949,
      "_bin": 6950,
      "_meta": 6951,
      "fing": 6952,
      "nargs": 6953,
      "ufo": 6954,
      "rev": 6955,
      "revision": 6956,
      "atter": 6957,
      "arse": 6958,
      "dist_": 6959,
      "nozzle": 6960,
      "()).": 6961,
      "essian": 6962,
      "Report": 6963,
      "_identifier": 6964,
      "Indic": 6965,
      "refer": 6966,
      "ective": 6967,
      "Segment": 6968,
      "_sections": 6969,
      "process_": 6970,
      "normaliz": 6971,
      "n_components": 6972,
      "years": 6973,
      "ght_": 6974,
      "Web": 6975,
      "ACH": 6976,
      "class_name": 6977,
      "POINT": 6978,
      "patches": 6979,
      "ECT": 6980,
      "broker": 6981,
      "composition": 6982,
      "issues": 6983,
      "DoesNotExist": 6984,
      "simply": 6985,
      "literal": 6986,
      "digits": 6987,
      "dedicated": 6988,
      "tolerance": 6989,
      "/=": 6990,
      "46": 6991,
      "GS": 6992,
      "aa": 6993,
      "gaussian": 6994,
      "r_": 6995,
      "salt": 6996,
      "ush": 6997,
      "{%": 6998,
      "──": 6999,
      "sess": 7000,
      "decls": 7001,
      "detach": 7002,
      "covariance": 7003,
      "health": 7004,
      "packets": 7005,
      "coll": 7006,
      "to_dict": 7007,
      "imports": 7008,
      "Dataset": 7009,
      "tension": 7010,
      "splitlines": 7011,
      "olutions": 7012,
      "foreground": 7013,
      "manif": 7014,
      "completen": 7015,
      "TEN": 7016,
      "wrapped_": 7017,
      "building": 7018,
      "customer": 7019,
      "ING_": 7020,
      "SUB": 7021,
      "Assertion": 7022,
      "variogram": 7023,
      "_permissions": 7024,
      "efficient": 7025,
      "adapter": 7026,
      "explicitly": 7027,
      "formula": 7028,
      "experiment_": 7029,
      "'>": 7030,
      "Future": 7031,
      "La": 7032,
      "Zone": 7033,
      "_arg": 7034,
      "_default_": 7035,
      "_for_": 7036,
      "l2": 7037,
      "spark": 7038,
      "inser": 7039,
      "leave": 7040,
      "tiles": 7041,
      "()}": 7042,
      "upstream": 7043,
      "cls_": 7044,
      "pause": 7045,
      "usable": 7046,
      "_sq": 7047,
      "phi_": 7048,
      "request_": 7049,
      "transfer": 7050,
      "bin_width": 7051,
      "interest": 7052,
      "Pointer": 7053,
      "ENT_": 7054,
      "builds": 7055,
      "CONFI": 7056,
      "annotation": 7057,
      "ATION_": 7058,
      "cut_": 7059,
      "epsf": 7060,
      "Copy": 7061,
      "topology": 7062,
      "AEAD": 7063,
      "agen": 7064,
      "d2": 7065,
      "dP_": 7066,
      "gcm": 7067,
      "mmax": 7068,
      "wk": 7069,
      "ony": 7070,
      "tho": 7071,
      "third": 7072,
      "ged_": 7073,
      "','.": 7074,
      "mosome": 7075,
      "vered": 7076,
      "poes": 7077,
      "bucke": 7078,
      "bod": 7079,
      "col_name": 7080,
      "ceph": 7081,
      "_crop": 7082,
      "regression": 7083,
      "auto_": 7084,
      "ranges": 7085,
      "exported": 7086,
      "is_leap_year": 7087,
      "_release": 7088,
      "tmp_": 7089,
      "device_": 7090,
      "long_probs": 7091,
      "zeros_like": 7092,
      "things": 7093,
      "evaluation": 7094,
      "threading": 7095,
      "definitions": 7096,
      "detected": 7097,
      "bands": 7098,
      "_scores": 7099,
      "private_key": 7100,
      "Registration": 7101,
      "_impl": 7102,
      "Authentication": 7103,
      "Step": 7104,
      "compiler": 7105,
      "ARGUMENT": 7106,
      "seudo": 7107,
      ")')": 7108,
      "BY": 7109,
      "DN": 7110,
      "Drop": 7111,
      "Sti": 7112,
      "_weights": 7113,
      "naker": 7114,
      "san": 7115,
      "uny": 7116,
      "union": 7117,
      "s_from_": 7118,
      "''):": 7119,
      "prev_": 7120,
      "respond": 7121,
      "specifies": 7122,
      "ERE": 7123,
      "Admin": 7124,
      "check_output": 7125,
      "payment": 7126,
      "attachment_": 7127,
      "scoop": 7128,
      "markdown": 7129,
      "NVML_SUCCESS": 7130,
      "membership": 7131,
      "Role": 7132,
      "6666": 7133,
      "spikes": 7134,
      "SendSpec": 7135,
      "denote": 7136,
      "Abort": 7137,
      "residual": 7138,
      "dry_run": 7139,
      "ShutItSendSpec": 7140,
      "!\")": 7141,
      "*,": 7142,
      ":].": 7143,
      "EV": 7144,
      "Hour": 7145,
      "Pl": 7146,
      "[%": 7147,
      "_transform": 7148,
      "gno": 7149,
      "}`": 7150,
      "sector": 7151,
      "atm": 7152,
      "concept": 7153,
      "shut": 7154,
      "ssl_": 7155,
      "path_": 7156,
      "pers": 7157,
      "spring": 7158,
      "defaultdict": 7159,
      "otp": 7160,
      "world": 7161,
      "impro": 7162,
      "ATCH": 7163,
      "Ensure": 7164,
      "flavor": 7165,
      "pkg_": 7166,
      "supports": 7167,
      "metric_": 7168,
      "located": 7169,
      "ASH": 7170,
      "assignment": 7171,
      "Features": 7172,
      "retries": 7173,
      "implemented": 7174,
      "largest": 7175,
      "12345": 7176,
      "Neurite": 7177,
      "88": 7178,
      "??": 7179,
      "AGE": 7180,
      "But": 7181,
      "Category": 7182,
      "DC": 7183,
      "Nu": 7184,
      "SW": 7185,
      "_source": 7186,
      "kriging": 7187,
      "lify": 7188,
      "pip": 7189,
      "vs_": 7190,
      "{!": 7191,
      "at_": 7192,
      "stone": 7193,
      "room": 7194,
      "sities": 7195,
      "))]": 7196,
      "endpoint_": 7197,
      "userdata": 7198,
      "_syn": 7199,
      "unders": 7200,
      "check_call": 7201,
      "longer": 7202,
      "Tool": 7203,
      "DEV": 7204,
      "_flu": 7205,
      "MEN": 7206,
      "going": 7207,
      "multiply": 7208,
      "cert_": 7209,
      "waiting": 7210,
      "Obj": 7211,
      "Fault": 7212,
      "MAIN": 7213,
      "Temporary": 7214,
      "ip_address": 7215,
      "treat": 7216,
      "ciphertext": 7217,
      "Clear": 7218,
      "DNS": 7219,
      "Fail": 7220,
      "Igno": 7221,
      "Package": 7222,
      "URE": 7223,
      "_root": 7224,
      "ui": 7225,
      "ravel": 7226,
      "ader": 7227,
      "mouse": 7228,
      "_ptr": 7229,
      "wild": 7230,
      "shuff": 7231,
      "suc": 7232,
      "suitable": 7233,
      "Design": 7234,
      "rected": 7235,
      "plural": 7236,
      "...]": 7237,
      "allowed_": 7238,
      "fitting": 7239,
      "router": 7240,
      "decoded": 7241,
      "capture": 7242,
      "Transfer": 7243,
      "consumer_": 7244,
      "piece": 7245,
      "Month": 7246,
      "Tracking": 7247,
      "retrieved": 7248,
      "octet": 7249,
      "chromosome": 7250,
      ".\".": 7251,
      "Dim": 7252,
      "Right": 7253,
      "Since": 7254,
      "_of": 7255,
      "_lower": 7256,
      "e1": 7257,
      "kill": 7258,
      "sids": 7259,
      "rename": 7260,
      "annu": 7261,
      "kelet": 7262,
      "ument_": 7263,
      "_pdu": 7264,
      "_save": 7265,
      "readline": 7266,
      "axis_": 7267,
      "Decor": 7268,
      "classification": 7269,
      "handling": 7270,
      "_profile": 7271,
      "STOR": 7272,
      "extra_context": 7273,
      "connect_": 7274,
      "globals": 7275,
      "Environ": 7276,
      "IC_": 7277,
      "ADD": 7278,
      "forum_": 7279,
      "branches": 7280,
      "encryption_context": 7281,
      "Iterable": 7282,
      "atern": 7283,
      "saving": 7284,
      "slash": 7285,
      "MODE": 7286,
      "ArcGIS": 7287,
      "YubiKey": 7288,
      "papers": 7289,
      ")``": 7290,
      ":\",": 7291,
      "Popen": 7292,
      "RT": 7293,
      "SY": 7294,
      "_error": 7295,
      "t1": 7296,
      "tld": 7297,
      "xlim": 7298,
      "inverse": 7299,
      "raction": 7300,
      "sitions": 7301,
      "edf": 7302,
      "s_by": 7303,
      "dates": 7304,
      "acc": 7305,
      "ody": 7306,
      "bases": 7307,
      "gene": 7308,
      "intercept": 7309,
      "regime": 7310,
      "lat1": 7311,
      "json_dict": 7312,
      "charm": 7313,
      "portion": 7314,
      "retval": 7315,
      "SPICE": 7316,
      "DoubleMatrix": 7317,
      "Specify": 7318,
      "higher": 7319,
      "Axis": 7320,
      "public_key": 7321,
      "INITI": 7322,
      "vestig": 7323,
      "course": 7324,
      "Merge": 7325,
      "aternion": 7326,
      "\"}": 7327,
      "'^": 7328,
      "41": 7329,
      "Bro": 7330,
      "Screen": 7331,
      "V_": 7332,
      "WE": 7333,
      "bb": 7334,
      "nc": 7335,
      "tend": 7336,
      "turbul": 7337,
      "ifier": 7338,
      "ismogen": 7339,
      "tspan": 7340,
      "apt": 7341,
      "getLogger": 7342,
      "s_count": 7343,
      "Errors": 7344,
      "(\"--": 7345,
      "minor": 7346,
      "Exit": 7347,
      "Conv2": 7348,
      "variant": 7349,
      "netloc": 7350,
      "empty_": 7351,
      "IPv6": 7352,
      "ConfigParser": 7353,
      "conv2d": 7354,
      "modific": 7355,
      "snap": 7356,
      "CONST": 7357,
      "weeks": 7358,
      "friend": 7359,
      "subscrip": 7360,
      "mkdir": 7361,
      "Member": 7362,
      "base_learner_": 7363,
      "Conv2d_": 7364,
      ")/(": 7365,
      "400": 7366,
      "57": 7367,
      "Ali": 7368,
      "Don": 7369,
      "RGB": 7370,
      "Surface": 7371,
      "_action": 7372,
      "_URL": 7373,
      "_rad": 7374,
      "ddo": 7375,
      "further": 7376,
      "ition": 7377,
      "ping_": 7378,
      "restore": 7379,
      "encoder": 7380,
      "gether": 7381,
      "tolist": 7382,
      "diameters": 7383,
      "fileobj": 7384,
      "key_provider": 7385,
      "obo": 7386,
      "')])": 7387,
      "quare": 7388,
      "predict_": 7389,
      "cach": 7390,
      "Export": 7391,
      "to_json": 7392,
      "_dataset": 7393,
      "serializer": 7394,
      "currency": 7395,
      "Alph": 7396,
      "determines": 7397,
      "tunnel": 7398,
      "exponent": 7399,
      "slicer": 7400,
      "weets": 7401,
      "/**": 7402,
      ":\")": 7403,
      "O3": 7404,
      "OB": 7405,
      "OL": 7406,
      "RFC": 7407,
      "Site": 7408,
      "]}": 7409,
      "_command": 7410,
      "east": 7411,
      "fpath": 7412,
      "hit": 7413,
      "jaco": 7414,
      "pdu": 7415,
      "pitch": 7416,
      "targ": 7417,
      "water": 7418,
      "least_": 7419,
      "_pred": 7420,
      "olve": 7421,
      "prox": 7422,
      "listdir": 7423,
      "func_": 7424,
      "config_": 7425,
      "finalize": 7426,
      "attr_dict": 7427,
      "10000": 7428,
      "zipcode": 7429,
      "fitted": 7430,
      "_conf": 7431,
      "Byte": 7432,
      "combine": 7433,
      "prompt_": 7434,
      "problems": 7435,
      "individuals": 7436,
      "requirements": 7437,
      "Pipeline": 7438,
      "replic": 7439,
      "similarity": 7440,
      "tube": 7441,
      "pieces": 7442,
      "BytesIO": 7443,
      "cumulative": 7444,
      "organization": 7445,
      "Empty": 7446,
      "AssertionError": 7447,
      "\"[": 7448,
      "')))": 7449,
      "=',": 7450,
      "D1": 7451,
      "LM": 7452,
      "Te": 7453,
      "_distance": 7454,
      "_stats": 7455,
      "va": 7456,
      "inar": 7457,
      "abort": 7458,
      "_plugin": 7459,
      "outli": 7460,
      "urlparse": 7461,
      "__file": 7462,
      "groupby": 7463,
      "Thread": 7464,
      "bind": 7465,
      "blocksize": 7466,
      "_predict_": 7467,
      "fontsize": 7468,
      "NVML_ERROR_INVALID_": 7469,
      "However": 7470,
      "SDC": 7471,
      "attempts": 7472,
      "notifications": 7473,
      "dialect": 7474,
      "NVML_ERROR_INVALID_ARGUMENT": 7475,
      "07": 7476,
      "Body": 7477,
      "Dyn": 7478,
      "Git": 7479,
      "Li": 7480,
      "Sort": 7481,
      "TA": 7482,
      "_df": 7483,
      "blink": 7484,
      "bash": 7485,
      "ders": 7486,
      "lv": 7487,
      "land": 7488,
      "stick": 7489,
      "thers": 7490,
      "ented": 7491,
      "toscape": 7492,
      "together": 7493,
      "cov": 7494,
      "comes": 7495,
      "exceed": 7496,
      "keeper": 7497,
      "outine": 7498,
      "logical_": 7499,
      "places": 7500,
      "ouch": 7501,
      "iterate": 7502,
      "only_": 7503,
      "RESS": 7504,
      "relation_": 7505,
      "Meta": 7506,
      "beta2": 7507,
      "merged": 7508,
      "Overri": 7509,
      "Starting": 7510,
      "monthly_": 7511,
      "recognized": 7512,
      "entry_": 7513,
      "Takes": 7514,
      "Builder": 7515,
      "300": 7516,
      "69": 7517,
      ">/": 7518,
      "Fri": 7519,
      "My": 7520,
      "MFD": 7521,
      "Twitter": 7522,
      "VS": 7523,
      "\\.": 7524,
      "etag": 7525,
      "press": 7526,
      "v3": 7527,
      "reward": 7528,
      "ark": 7529,
      "ceil": 7530,
      "conds": 7531,
      "resampling": 7532,
      "person": 7533,
      "precation": 7534,
      "_sql": 7535,
      "label_image": 7536,
      "_progress": 7537,
      "NameID": 7538,
      "ST_": 7539,
      "Keyboard": 7540,
      "LENG": 7541,
      "manually": 7542,
      "segno": 7543,
      "Computes": 7544,
      "task_id": 7545,
      "bytes_to_": 7546,
      "force_": 7547,
      "reduci": 7548,
      "ibility": 7549,
      "detect": 7550,
      "smoothe": 7551,
      "Private": 7552,
      "efficiency": 7553,
      "Depth": 7554,
      "bounding_box": 7555,
      "relevant": 7556,
      "ALIZED": 7557,
      "Environment": 7558,
      "INITIALIZED": 7559,
      "0b": 7560,
      "Equ": 7561,
      "QUE": 7562,
      "cf": 7563,
      "cates": 7564,
      "fret": 7565,
      "pmap": 7566,
      "please": 7567,
      "rd": 7568,
      "t2": 7569,
      "ancer": 7570,
      "uris": 7571,
      "ift_": 7572,
      "rock": 7573,
      "codename": 7574,
      "coarse": 7575,
      "asic": 7576,
      "beam": 7577,
      "('{}": 7578,
      "keyName": 7579,
      "listed": 7580,
      "rendered": 7581,
      "iving": 7582,
      "ipv6": 7583,
      "recision": 7584,
      "blocking": 7585,
      "DEF": 7586,
      "day_": 7587,
      "meaning": 7588,
      "template_name": 7589,
      "full_name": 7590,
      "diffuse": 7591,
      "intensities": 7592,
      "stddev_type": 7593,
      "excluded": 7594,
      "subscribe": 7595,
      "celeration": 7596,
      "Publish": 7597,
      "tmux": 7598,
      "Analysis": 7599,
      "atoms": 7600,
      "alphabet": 7601,
      "__file__": 7602,
      ")`": 7603,
      "Full": 7604,
      "Q_": 7605,
      "Void": 7606,
      "_iter": 7607,
      "_location": 7608,
      "d1": 7609,
      "l1": 7610,
      "mfd": 7611,
      "os_": 7612,
      "vdata": 7613,
      "self_": 7614,
      "uld_": 7615,
      "ulus": 7616,
      "mpt": 7617,
      "params_": 7618,
      "posed": 7619,
      "s_in": 7620,
      "lain": 7621,
      "used_": 7622,
      "trying": 7623,
      "Inten": 7624,
      "intermedi": 7625,
      "1024": 7626,
      "json_": 7627,
      "Security": 7628,
      "_sele": 7629,
      "actual_": 7630,
      "daemon": 7631,
      "Provider": 7632,
      "Unexpected": 7633,
      "Unsupported": 7634,
      "2012": 7635,
      "api_": 7636,
      "LE_": 7637,
      "destin": 7638,
      "destro": 7639,
      "Quanti": 7640,
      "_tokens": 7641,
      "pexpect_child": 7642,
      "characteristic": 7643,
      "editor": 7644,
      "limit_": 7645,
      "shortcut": 7646,
      "ProcessError": 7647,
      "uint8": 7648,
      "journal": 7649,
      "Engineering": 7650,
      "rasters": 7651,
      "motors": 7652,
      "!')": 7653,
      "%.": 7654,
      "MIN": 7655,
      "MAC": 7656,
      "PER": 7657,
      "Si": 7658,
      "_order": 7659,
      "_convert_": 7660,
      "bg_": 7661,
      "motion": 7662,
      "proxy_": 7663,
      "argspec": 7664,
      "bucket_": 7665,
      "should_": 7666,
      "commit_": 7667,
      "communic": 7668,
      "number_of_": 7669,
      "prior": 7670,
      "_retries": 7671,
      "offspring": 7672,
      "graphy": 7673,
      "2014": 7674,
      "Enti": 7675,
      "train_": 7676,
      "properly": 7677,
      "skel": 7678,
      "simx": 7679,
      "Elements": 7680,
      "markers": 7681,
      "apply_": 7682,
      "object_path": 7683,
      "init_vals": 7684,
      "purviews": 7685,
      "previously": 7686,
      "SHA": 7687,
      "sha256": 7688,
      "eigen_solver": 7689,
      "video": 7690,
      "NVML_ERROR_UNKNOWN": 7691,
      "NVML_ERROR_UNINITIALIZED": 7692,
      "touch": 7693,
      "SUPPOR": 7694,
      "CA": 7695,
      "Cy": 7696,
      "_nodes": 7697,
      "_parts": 7698,
      "give": 7699,
      "mfd_": 7700,
      "atype": 7701,
      "isot": 7702,
      "nodal": 7703,
      "return_type": 7704,
      "hot": 7705,
      "prevent": 7706,
      "shape_params": 7707,
      "mlane": 7708,
      "ternational": 7709,
      "101": 7710,
      "AddError": 7711,
      "Domain": 7712,
      "control_": 7713,
      "input_file": 7714,
      "sortby": 7715,
      "confli": 7716,
      "Reads": 7717,
      "Reader": 7718,
      "Shape": 7719,
      "beginning": 7720,
      "run_command": 7721,
      "Generator": 7722,
      "spike_": 7723,
      "cookbook": 7724,
      "Joint": 7725,
      "Control": 7726,
      "Operation": 7727,
      "Syntax": 7728,
      "sibly": 7729,
      "Platform": 7730,
      "sentry_unit": 7731,
      "friendly": 7732,
      "VM": 7733,
      "Zip": 7734,
      "_option": 7735,
      "_default": 7736,
      "_status": 7737,
      "b64": 7738,
      "iops": 7739,
      "ner_": 7740,
      "r2": 7741,
      "orifice": 7742,
      "ales": 7743,
      "\"\".": 7744,
      "isation": 7745,
      "lope": 7746,
      "Recur": 7747,
      "')):": 7748,
      "iling": 7749,
      "buckets": 7750,
      "iles": 7751,
      "checker": 7752,
      "element_": 7753,
      "ERS": 7754,
      "distin": 7755,
      "...')": 7756,
      "employ": 7757,
      "authors": 7758,
      "0xFFFFFFFF": 7759,
      "represented": 7760,
      "^{-": 7761,
      "namedtuple": 7762,
      "hypothe": 7763,
      "calc_id": 7764,
      "probably": 7765,
      "Viscosity": 7766,
      "tuning": 7767,
      "Journal": 7768,
      "Controller": 7769,
      "Register": 7770,
      "article": 7771,
      "CalledProcessError": 7772,
      "COLUMN": 7773,
      "Darcy": 7774,
      "NaN": 7775,
      "ierarchy": 7776,
      "shutdown": 7777,
      "shuffle": 7778,
      ")],": 7779,
      "HDU": 7780,
      "Ps": 7781,
      "VAR": 7782,
      "_offset": 7783,
      "_metadata": 7784,
      "_load_": 7785,
      "ior": 7786,
      "nm": 7787,
      "nic": 7788,
      "snps": 7789,
      "sel": 7790,
      "atleast_": 7791,
      "decess": 7792,
      "tively": 7793,
      "asure": 7794,
      "abilities": 7795,
      "key_id": 7796,
      "timeline": 7797,
      "prefer": 7798,
      "minal": 7799,
      "_cb": 7800,
      "{}).": 7801,
      "omit": 7802,
      "matcher": 7803,
      "_data_": 7804,
      "choose": 7805,
      "REST": 7806,
      "_repr": 7807,
      "titles": 7808,
      "continuous": 7809,
      "segid": 7810,
      "Colors": 7811,
      "150": 7812,
      "numeration": 7813,
      "secure": 7814,
      "Iterate": 7815,
      "expanded": 7816,
      "immediately": 7817,
      "advance": 7818,
      "switch": 7819,
      "Hyper": 7820,
      "nounce": 7821,
      "onymo": 7822,
      "8s": 7823,
      "Eval": 7824,
      "GO": 7825,
      "Gids": 7826,
      "Pos": 7827,
      "Ts": 7828,
      "`{": 7829,
      "aes": 7830,
      "ial_": 7831,
      "mpe": 7832,
      "rdf": 7833,
      "tbl": 7834,
      "inv": 7835,
      "ono": 7836,
      "arrow": 7837,
      "lite": 7838,
      "licies": 7839,
      "making": 7840,
      "truth": 7841,
      "s_in_": 7842,
      "perm": 7843,
      "_clean": 7844,
      "submission": 7845,
      "max_id": 7846,
      "{}\"": 7847,
      "image_name": 7848,
      "episo": 7849,
      "lat0": 7850,
      "fft": 7851,
      "INTE": 7852,
      "passphrase": 7853,
      "exports": 7854,
      "anging": 7855,
      "existing_": 7856,
      "DECL": 7857,
      "cmd_": 7858,
      "laminar": 7859,
      "cache_key": 7860,
      "CheckReturn": 7861,
      "availability": 7862,
      "192": 7863,
      "Layout": 7864,
      "##########": 7865,
      "adjustment": 7866,
      "broad": 7867,
      "EXT": 7868,
      "TIONS": 7869,
      "activation": 7870,
      "_nvmlCheckReturn": 7871,
      "stroke": 7872,
      "Guest": 7873,
      "Numpy": 7874,
      "May": 7875,
      "OTP": 7876,
      "Sp": 7877,
      "Schema": 7878,
      "UB": 7879,
      "Uses": 7880,
      "das": 7881,
      "gpu": 7882,
      "jb": 7883,
      "jar": 7884,
      "ncol": 7885,
      "padd": 7886,
      "rx": 7887,
      "v0": 7888,
      "yy": 7889,
      "reli": 7890,
      "recomm": 7891,
      "org_": 7892,
      "throw": 7893,
      "ticke": 7894,
      "roun": 7895,
      "resume": 7896,
      "uming": 7897,
      "beat": 7898,
      "opcode": 7899,
      "_pol": 7900,
      "_pixel": 7901,
      "Re_": 7902,
      "institute": 7903,
      "crest": 7904,
      "compiled": 7905,
      "scatter": 7906,
      "lon0": 7907,
      "generations": 7908,
      "STAT": 7909,
      "functools": 7910,
      "poll_": 7911,
      "depth_": 7912,
      "ACE": 7913,
      "much": 7914,
      "caption": 7915,
      "datatable": 7916,
      "straight": 7917,
      "guar": 7918,
      "consistent": 7919,
      "Work": 7920,
      "base_learner": 7921,
      "RDAP": 7922,
      "ordinal": 7923,
      "descriptor": 7924,
      "_candidate": 7925,
      "Received": 7926,
      "thresholds": 7927,
      "Standard": 7928,
      "grouped_dicoms": 7929,
      "/#": 7930,
      ":]:": 7931,
      "BASE": 7932,
      "Cir": 7933,
      "DID": 7934,
      "Fr": 7935,
      "Pattern": 7936,
      "UUID": 7937,
      "[{": 7938,
      "_ext": 7939,
      "_fil": 7940,
      "_num_": 7941,
      "_area": 7942,
      "cv": 7943,
      "care": 7944,
      "hint": 7945,
      "uce": 7946,
      "wt": 7947,
      "secs": 7948,
      "enroll": 7949,
      "ull_": 7950,
      "_patch": 7951,
      "ily_": 7952,
      "newer": 7953,
      "attr_name": 7954,
      "intersection": 7955,
      "srf": 7956,
      "localhost": 7957,
      "=\"%": 7958,
      "psf": 7959,
      "rectangle": 7960,
      "evaluated": 7961,
      "encryption_key": 7962,
      "processed_": 7963,
      "Interrupt": 7964,
      "_point_": 7965,
      "statistic": 7966,
      "ignore_background": 7967,
      "occurs": 7968,
      "Memory": 7969,
      "STRING": 7970,
      "grouped": 7971,
      "discrete": 7972,
      "criteria": 7973,
      "Tools": 7974,
      ",\"": 7975,
      "=('": 7976,
      "High": 7977,
      "Il": 7978,
      "LIN": 7979,
      "_level": 7980,
      "ilename": 7981,
      "nl": 7982,
      "rate_": 7983,
      "sd": 7984,
      "tets": 7985,
      "res_g": 7986,
      "str_": 7987,
      "mock": 7988,
      "_ph": 7989,
      "(\"{": 7990,
      "icket": 7991,
      "Return_t": 7992,
      "_credentials": 7993,
      "extver": 7994,
      "printer": 7995,
      "GetFunction": 7996,
      "Angle": 7997,
      "important": 7998,
      "saveFig": 7999,
      "rho_": 8000,
      "nvmlReturn_t": 8001,
      "attachments": 8002,
      "coverage": 8003,
      "choice_col": 8004,
      "Figure": 8005,
      "Supported": 8006,
      "_nvmlGetFunction": 8007,
      "satis": 8008,
      "obtained": 8009,
      "systematic": 8010,
      "Magnitude": 8011,
      "manifest": 8012,
      "DECLDIR": 8013,
      "ticket_id": 8014,
      "_nvmlGetFunctionPointer": 8015,
      "+\\": 8016,
      "54": 8017,
      "AF_": 8018,
      "Packet": 8019,
      "[{'": 8020,
      "_view": 8021,
      "_update_": 8022,
      "pend": 8023,
      "wrong": 8024,
      "station": 8025,
      "alche": 8026,
      "alert": 8027,
      "meso": 8028,
      "_payload": 8029,
      "endar": 8030,
      "Reset": 8031,
      "lace": 8032,
      "``(": 8033,
      "useren": 8034,
      "areas": 8035,
      "])]": 8036,
      "Construct": 8037,
      "recent": 8038,
      "quiet": 8039,
      "primi": 8040,
      "extraction": 8041,
      "api_name": 8042,
      "stripped": 8043,
      "Policy": 8044,
      "errno": 8045,
      "follows": 8046,
      "Media": 8047,
      "sigma_": 8048,
      "model_parameters": 8049,
      "rlp": 8050,
      "Period": 8051,
      "MAX": 8052,
      "recursively": 8053,
      "quotes": 8054,
      "long_form": 8055,
      "tabular": 8056,
      "variogram_model_parameters": 8057,
      "exec_": 8058,
      "mirror": 8059,
      "Intensity": 8060,
      "1_": 8061,
      "53": 8062,
      "Ci": 8063,
      "Gid": 8064,
      "HAR": 8065,
      "LY": 8066,
      "LINE": 8067,
      "Mob": 8068,
      "Space": 8069,
      "Script": 8070,
      "_utils": 8071,
      "bd": 8072,
      "bre": 8073,
      "far": 8074,
      "gri": 8075,
      "native": 8076,
      "pat": 8077,
      "vout": 8078,
      "really": 8079,
      "onom": 8080,
      "t_size": 8081,
      "chr": 8082,
      "adj": 8083,
      "sibility": 8084,
      "typedef": 8085,
      "trim": 8086,
      "model_type": 8087,
      "distro": 8088,
      "aging": 8089,
      "generation": 8090,
      "Protocol": 8091,
      "Enter": 8092,
      "streams": 8093,
      "nake": 8094,
      "UNI": 8095,
      "asynchronous": 8096,
      "xml_": 8097,
      "ic_utilities": 8098,
      "Permission": 8099,
      "hexdigest": 8100,
      "=[],": 8101,
      "SERV": 8102,
      "leading": 8103,
      "Signature": 8104,
      "Sky": 8105,
      "ENDPOINT": 8106,
      "citation": 8107,
      "_print": 8108,
      "Term": 8109,
      "systematic_utilities": 8110,
      "periods": 8111,
      "_snapsho": 8112,
      "Struct": 8113,
      "MNL": 8114,
      "irical": 8115,
      "Dimension": 8116,
      "Alpha": 8117,
      "meso_t": 8118,
      "Mobile": 8119,
      "';": 8120,
      ")['": 8121,
      "Dt": 8122,
      "EST": 8123,
      "LL": 8124,
      "Native": 8125,
      "])))": 8126,
      "_msg": 8127,
      "ipython": 8128,
      "others": 8129,
      "qry": 8130,
      "report_": 8131,
      "anisot": 8132,
      "anonymo": 8133,
      "adu": 8134,
      "rise": 8135,
      "strategy": 8136,
      "d_c": 8137,
      "filesystem": 8138,
      "outSR": 8139,
      "soap": 8140,
      "lax": 8141,
      "preserve": 8142,
      "subnet_": 8143,
      "Invoice": 8144,
      "International": 8145,
      "__doc": 8146,
      "Parses": 8147,
      "traits": 8148,
      "agents": 8149,
      "agran": 8150,
      "2013": 8151,
      "Identifier": 8152,
      "calculate_": 8153,
      "tails": 8154,
      "x_0": 8155,
      "pipeline_": 8156,
      "callbacks": 8157,
      "Contin": 8158,
      "operators": 8159,
      "velope": 8160,
      "_group_col": 8161,
      "rlzs": 8162,
      "nrml": 8163,
      "repeated": 8164,
      "Removes": 8165,
      "yield_to_": 8166,
      "physical": 8167,
      "gsim_": 8168,
      "LENGTH": 8169,
      "__doc__": 8170,
      "agrant_": 8171,
      "yield_to_draw": 8172,
      ")\",": 8173,
      "62": 8174,
      "HA": 8175,
      "Horizontal": 8176,
      "Pass": 8177,
      "Sig": 8178,
      "]-": 8179,
      "_storage": 8180,
      "_and_": 8181,
      "_handle_": 8182,
      "kargs": 8183,
      "ng": 8184,
      "}',": 8185,
      "att": 8186,
      "stable": 8187,
      "ens": 8188,
      "anchor": 8189,
      "adds": 8190,
      "('#": 8191,
      "filePath": 8192,
      "vile": 8193,
      "trip": 8194,
      "acquire": 8195,
      "c_uint": 8196,
      "lat2": 8197,
      "OR_": 8198,
      "supply": 8199,
      "enclo": 8200,
      "output_filename": 8201,
      "2016": 8202,
      "Child": 8203,
      "errs": 8204,
      "sky_": 8205,
      "cluster_": 8206,
      "_dt": 8207,
      "check_exit": 8208,
      "mesh_spacing": 8209,
      "lossary": 8210,
      "Layer_": 8211,
      "Factor": 8212,
      "directions": 8213,
      "produce": 8214,
      "GPG": 8215,
      "cpp": 8216,
      "fit_kwargs": 8217,
      "spike_ids": 8218,
      "eqn": 8219,
      "SCR": 8220,
      "cnfine": 8221,
      "CLIAbort": 8222,
      "convenience": 8223,
      "HDF5": 8224,
      "TEXT": 8225,
      "ertificate": 8226,
      "snippet": 8227,
      "OCLArray": 8228,
      "itution": 8229,
      ")*(": 8230,
      "09": 8231,
      "49": 8232,
      "?\\": 8233,
      "Django": 8234,
      "Ticket": 8235,
      "Vir": 8236,
      "_all": 8237,
      "_shape": 8238,
      "_height": 8239,
      "_resolver": 8240,
      "hdu": 8241,
      "issubclass": 8242,
      "cool": 8243,
      "peer": 8244,
      "chi": 8245,
      "assert_": 8246,
      "idata": 8247,
      "notation": 8248,
      "motor": 8249,
      "pod": 8250,
      "getConstant": 8251,
      "_inv": 8252,
      "temp_": 8253,
      "signific": 8254,
      "latest_": 8255,
      "Lock": 8256,
      "Chem": 8257,
      "COEFF": 8258,
      "_perms": 8259,
      "weight_": 8260,
      "_dr": 8261,
      "UNC": 8262,
      "509": 8263,
      "NAMES": 8264,
      "Iteration": 8265,
      "expiration": 8266,
      "ensemble": 8267,
      "translations": 8268,
      "Relation": 8269,
      "Enabled": 8270,
      "Encrypted": 8271,
      "Registers": 8272,
      "PORT": 8273,
      "Counter": 8274,
      "vertices": 8275,
      "dummy": 8276,
      "lazy": 8277,
      "Stims": 8278,
      ".'''": 8279,
      "79": 8280,
      "800": 8281,
      "=[]": 8282,
      "Sample": 8283,
      "Spin": 8284,
      "Vips": 8285,
      "_details": 8286,
      "ctive": 8287,
      "e2": 8288,
      "hs": 8289,
      "ut_": 8290,
      "ved_": 8291,
      "y_pred": 8292,
      "}}{": 8293,
      "inc_": 8294,
      "investig": 8295,
      "leaf": 8296,
      "colo": 8297,
      "t_type": 8298,
      "elli": 8299,
      "unspecified": 8300,
      "uncertain": 8301,
      "contribu": 8302,
      "upon": 8303,
      "param_list": 8304,
      "proceed": 8305,
      "getting": 8306,
      "baker": 8307,
      "__url": 8308,
      "recv": 8309,
      "versionadded": 8310,
      "nels": 8311,
      "idxs": 8312,
      "zones": 8313,
      "radius_": 8314,
      "include_": 8315,
      "months": 8316,
      "TPM": 8317,
      "ADJ": 8318,
      "probs": 8319,
      "Bucket": 8320,
      "connParam": 8321,
      "Here": 8322,
      "decorated": 8323,
      "constrained": 8324,
      "bulb": 8325,
      "('/')": 8326,
      "secret_": 8327,
      "denomin": 8328,
      "centroids": 8329,
      "Minimum": 8330,
      "billing_": 8331,
      "neighbor": 8332,
      "Fluid": 8333,
      "Wiki": 8334,
      "respectively": 8335,
      "WHERE": 8336,
      "body_": 8337,
      "KeyboardInterrupt": 8338,
      "Spinnaker": 8339,
      "CE_": 8340,
      "IMA": 8341,
      "_A": 8342,
      "_manager": 8343,
      "mx": 8344,
      "pull": 8345,
      "scl": 8346,
      "zinfo": 8347,
      "isdigit": 8348,
      "tem": 8349,
      "lopen": 8350,
      "asing": 8351,
      "ulate": 8352,
      "filetype": 8353,
      "triple": 8354,
      "_cach": 8355,
      "Extension": 8356,
      "grain": 8357,
      "epw": 8358,
      "Conu": 8359,
      "ected": 8360,
      "ffect": 8361,
      "variants": 8362,
      "emis": 8363,
      "misc_": 8364,
      "_replace": 8365,
      "converter": 8366,
      "Encode": 8367,
      "shutit_util": 8368,
      "00000000": 8369,
      "markup": 8370,
      "todos": 8371,
      "expressions": 8372,
      "_PRO": 8373,
      "combination": 8374,
      "SoftLayer_": 8375,
      "citation_": 8376,
      "INET": 8377,
      "assemble": 8378,
      "wait_for_": 8379,
      "analyze": 8380,
      "YubiHSM": 8381,
      "Backend": 8382,
      "boto3": 8383,
      "NRRD": 8384,
      "TRANSFORM": 8385,
      "Decorator": 8386,
      "AF_INET": 8387,
      "Virt": 8388,
      "bakery": 8389,
      "%}": 8390,
      "'@": 8391,
      "59": 8392,
      ">,": 8393,
      "AES": 8394,
      "AWS": 8395,
      "EK": 8396,
      "Ke": 8397,
      "Last": 8398,
      "MD": 8399,
      "Single": 8400,
      "WCS": 8401,
      "^=": 8402,
      "_load": 8403,
      "ares": 8404,
      "nir": 8405,
      "pprint": 8406,
      "incomplete": 8407,
      "almn": 8408,
      "ues": 8409,
      "nodata": 8410,
      "andoc": 8411,
      "quaternion": 8412,
      "figures": 8413,
      "_ini": 8414,
      "sending": 8415,
      "Ind": 8416,
      "__module": 8417,
      "sigmas": 8418,
      "That": 8419,
      "fixref": 8420,
      "prime": 8421,
      "_required": 8422,
      "_flags": 8423,
      "masks": 8424,
      "aking": 8425,
      "foreign": 8426,
      "possibly": 8427,
      "scaled": 8428,
      "viscosity": 8429,
      "Compo": 8430,
      "select_": 8431,
      "capit": 8432,
      "log_likelihood": 8433,
      "authenticate": 8434,
      "receive": 8435,
      "KEY_": 8436,
      "badge": 8437,
      "spkts": 8438,
      "energy": 8439,
      "increase": 8440,
      "verifier": 8441,
      "PY3": 8442,
      "NotFoundError": 8443,
      "_parent": 8444,
      "Document": 8445,
      "Google": 8446,
      "Rennels": 8447,
      "instrument": 8448,
      "intercept_params": 8449,
      "Fetch": 8450,
      "Conv2d_0": 8451,
      "anisotropy": 8452,
      "ConuException": 8453,
      ",**": 8454,
      "=\"\",": 8455,
      "Basic": 8456,
      "Enum": 8457,
      "Flo": 8458,
      "Gre": 8459,
      "Long": 8460,
      "__s": 8461,
      "_cell": 8462,
      "_angle": 8463,
      "hc": 8464,
      "nn": 8465,
      "z2": 8466,
      "|\\": 8467,
      "sever": 8468,
      "real_": 8469,
      "ero": 8470,
      "ordered_": 8471,
      "arcrest": 8472,
      "derer": 8473,
      "tic_": 8474,
      "elap": 8475,
      "contrib": 8476,
      "strong": 8477,
      "prod": 8478,
      "endpoints": 8479,
      "s_by_": 8480,
      "sos": 8481,
      "(\">": 8482,
      "{}.": 8483,
      "Insert": 8484,
      "Part": 8485,
      "transparent": 8486,
      "lon1": 8487,
      "itertools": 8488,
      "_separ": 8489,
      "damage": 8490,
      "...\"": 8491,
      "...\")": 8492,
      "=\"{": 8493,
      "_font": 8494,
      "Chunk": 8495,
      "TEMPL": 8496,
      "COUN": 8497,
      "full_path": 8498,
      "rho_g": 8499,
      "fontbakery": 8500,
      "Transaction": 8501,
      "draws": 8502,
      "NVML_ERROR_NOT_": 8503,
      "accounting": 8504,
      "ticles": 8505,
      "Need": 8506,
      "activ": 8507,
      "accepted": 8508,
      "Module": 8509,
      "IonEvent": 8510,
      "uliweb": 8511,
      "StopIteration": 8512,
      "occup": 8513,
      "unctuation": 8514,
      "blend": 8515,
      "!\"": 8516,
      "(.*": 8517,
      "={}": 8518,
      "?'": 8519,
      "C2": 8520,
      "Hz": 8521,
      "Ty": 8522,
      "Yields": 8523,
      "_and": 8524,
      "_def": 8525,
      "_item": 8526,
      "dro": 8527,
      "f1": 8528,
      "kb": 8529,
      "lti": 8530,
      "tweets": 8531,
      "xblock": 8532,
      "atv": 8533,
      "\"\":": 8534,
      "toPython": 8535,
      "covered": 8536,
      "elb": 8537,
      "ctype": 8538,
      "contour": 8539,
      "end_point": 8540,
      "s_from": 8541,
      "objs": 8542,
      "orders": 8543,
      "ancest": 8544,
      "npy": 8545,
      "py_": 8546,
      "ipv4": 8547,
      "baseline": 8548,
      "http_": 8549,
      "msg_2": 8550,
      "output_line": 8551,
      "Prob": 8552,
      "operating": 8553,
      "goti": 8554,
      "affinity": 8555,
      "testing": 8556,
      "1111": 8557,
      "batch_": 8558,
      "projects": 8559,
      "timestamps": 8560,
      "LIMI": 8561,
      "dicom_": 8562,
      "VALU": 8563,
      "realpath": 8564,
      "ipedia": 8565,
      "sort_by": 8566,
      "symmetric": 8567,
      "mnl": 8568,
      "Properties": 8569,
      "_packages": 8570,
      "minimize": 8571,
      "Normalize": 8572,
      "utterances": 8573,
      "subparsers": 8574,
      "FIXME": 8575,
      "ismogenic_": 8576,
      "43": 8577,
      "72": 8578,
      "=''):": 8579,
      "BM": 8580,
      "CSS": 8581,
      "DATE": 8582,
      "TT": 8583,
      "XY": 8584,
      "][\"": 8585,
      "_target": 8586,
      "_vector": 8587,
      "_kwds": 8588,
      "_translate": 8589,
      "cles": 8590,
      "hh": 8591,
      "jection": 8592,
      "k2": 8593,
      "vrt": 8594,
      "vpc": 8595,
      "}/{": 8596,
      "re_": 8597,
      "orter": 8598,
      "deb": 8599,
      "ural_": 8600,
      "roi": 8601,
      "divide": 8602,
      "illi": 8603,
      "setText": 8604,
      "spl": 8605,
      "_cert": 8606,
      "_category": 8607,
      "../": 8608,
      "can_": 8609,
      "cked_": 8610,
      "auge": 8611,
      "tempor": 8612,
      "working_": 8613,
      "archiver": 8614,
      "fields_": 8615,
      "openstack": 8616,
      "DELE": 8617,
      "processor": 8618,
      "normal_": 8619,
      "n_features": 8620,
      "api_request": 8621,
      "Move": 8622,
      "_bit": 8623,
      "sideA_": 8624,
      "seems": 8625,
      "'%(": 8626,
      "controls": 8627,
      "bars": 8628,
      "geometryType": 8629,
      "applications": 8630,
      "Performs": 8631,
      "mysql": 8632,
      "LIST": 8633,
      "ssh_": 8634,
      "integration_": 8635,
      "public_id": 8636,
      "Groups": 8637,
      "dns_": 8638,
      "Updates": 8639,
      "publisher": 8640,
      "whitelist": 8641,
      "Pipes": 8642,
      "Download": 8643,
      "Friction": 8644,
      "__module__": 8645,
      "63": 8646,
      ":'": 8647,
      "={},": 8648,
      ">\",": 8649,
      "Bfd": 8650,
      "CC": 8651,
      "FLO": 8652,
      "Filename": 8653,
      "GValue": 8654,
      "MB": 8655,
      "Non": 8656,
      "Rou": 8657,
      "SL": 8658,
      "Scale": 8659,
      "Tit": 8660,
      "TCP": 8661,
      "_z": 8662,
      "_label": 8663,
      "_items": 8664,
      "c_c": 8665,
      "ever": 8666,
      "gray": 8667,
      "hd": 8668,
      "won": 8669,
      "encoun": 8670,
      "ifts": 8671,
      "cel": 8672,
      "locate": 8673,
      "light_": 8674,
      "division": 8675,
      "return_value": 8676,
      "exc_": 8677,
      "_ports": 8678,
      "shar": 8679,
      "profil": 8680,
      "Regex": 8681,
      "colon": 8682,
      "use_cache": 8683,
      "dateTime": 8684,
      "tric": 8685,
      "_custom": 8686,
      "extended": 8687,
      "grace": 8688,
      "oints": 8689,
      "\":\"": 8690,
      "pageid": 8691,
      "empirical": 8692,
      "operand": 8693,
      "converts": 8694,
      "api_version": 8695,
      "pubkey": 8696,
      "streaming": 8697,
      "randomness": 8698,
      "wrapping": 8699,
      "prefixed": 8700,
      "selected_": 8701,
      "looks": 8702,
      "therefore": 8703,
      "')),": 8704,
      "current_app": 8705,
      "2008": 8706,
      "controll": 8707,
      "lanes": 8708,
      "profile_name": 8709,
      "numerical_": 8710,
      "Implements": 8711,
      "HOME": 8712,
      "fragment": 8713,
      "================================": 8714,
      "Expression": 8715,
      "ChannelMode": 8716,
      "_publish": 8717,
      "font_metadata": 8718,
      "chords": 8719,
      "truncate": 8720,
      "rhop": 8721,
      "litude": 8722,
      "PGA": 8723,
      "ferential": 8724,
      "collision": 8725,
      "NeuriteType": 8726,
      "distinct": 8727,
      "ADJUST": 8728,
      "misc_txt": 8729,
      "'})": 8730,
      "++": 8731,
      "/.": 8732,
      "52": 8733,
      ">.": 8734,
      "HH": 8735,
      "Lat": 8736,
      "VI": 8737,
      "_bytes": 8738,
      "_attributes": 8739,
      "_after": 8740,
      "_make_": 8741,
      "ai": 8742,
      "cmp": 8743,
      "dup": 8744,
      "ners": 8745,
      "enu": 8746,
      "announce": 8747,
      "rap_": 8748,
      "datacenters": 8749,
      "('{": 8750,
      "intain": 8751,
      "proc_": 8752,
      "logical": 8753,
      "istics": 8754,
      "faile": 8755,
      "faster": 8756,
      "_cuto": 8757,
      "_single": 8758,
      "genes": 8759,
      "Para": 8760,
      "[]:": 8761,
      "ffmpe": 8762,
      "lon2": 8763,
      "ONT_": 8764,
      "expand_": 8765,
      "netfn": 8766,
      "STAR": 8767,
      "_seri": 8768,
      "Units": 8769,
      "Adap": 8770,
      "fnmatch": 8771,
      "TE_": 8772,
      "250": 8773,
      "untu": 8774,
      "declare": 8775,
      "Week": 8776,
      "forced": 8777,
      "followed": 8778,
      "closest": 8779,
      "source_model": 8780,
      "secondary": 8781,
      "products": 8782,
      "bedo": 8783,
      "taxonom": 8784,
      "routing": 8785,
      "FLAG": 8786,
      "venth": 8787,
      "variogram_model": 8788,
      "balance": 8789,
      "obs_id_col": 8790,
      "reached": 8791,
      "---+---+---+---+": 8792,
      "underscore": 8793,
      "Failure": 8794,
      "intermediate": 8795,
      "atleast_1d": 8796,
      "Title": 8797,
      "'$": 8798,
      "Cance": 8799,
      "Ef": 8800,
      "MF": 8801,
      "_make": 8802,
      "_exists": 8803,
      "dc_": 8804,
      "hu": 8805,
      "oct": 8806,
      "px": 8807,
      "inframe": 8808,
      "reserved": 8809,
      "ante": 8810,
      "chat": 8811,
      "asked": 8812,
      "often": 8813,
      "mpath": 8814,
      "abs_": 8815,
      "edu": 8816,
      "data_dict": 8817,
      "time_series": 8818,
      "sudo": 8819,
      "``)": 8820,
      "(\",": 8821,
      "newly": 8822,
      "crement": 8823,
      "____": 8824,
      "sys_": 8825,
      "Second": 8826,
      "summar": 8827,
      "charge": 8828,
      "Force": 8829,
      "Di2": 8830,
      "Adding": 8831,
      "_post_": 8832,
      "Entry": 8833,
      "0x3": 8834,
      "Created": 8835,
      "currences": 8836,
      "_prepare": 8837,
      "ation_time": 8838,
      "downloaded": 8839,
      "needle": 8840,
      "decl_type": 8841,
      "Quality": 8842,
      "Docker": 8843,
      "UND": 8844,
      "NumPy": 8845,
      "loss_type": 8846,
      "evaluations": 8847,
      "hexlify": 8848,
      "skip_": 8849,
      "Train": 8850,
      "sshkey": 8851,
      "Iterator": 8852,
      "Callback": 8853,
      "DEFAULT": 8854,
      "describe": 8855,
      "cookies": 8856,
      "Multiple": 8857,
      "drive": 8858,
      "audience": 8859,
      "OPEN": 8860,
      "Integr": 8861,
      "granted_": 8862,
      "contact": 8863,
      "computation": 8864,
      "Barriers": 8865,
      "cutout": 8866,
      "Liquid": 8867,
      "nake_type": 8868,
      "ADJUSTED": 8869,
      "\"',": 8870,
      "Clean": 8871,
      "FS": 8872,
      "Glob": 8873,
      "HI": 8874,
      "OU": 8875,
      "OFF": 8876,
      "R_": 8877,
      "]\"": 8878,
      "_res": 8879,
      "_user": 8880,
      "_with_": 8881,
      "afe": 8882,
      "drag": 8883,
      "hessian": 8884,
      "pf": 8885,
      "rjb": 8886,
      "wan": 8887,
      "inj": 8888,
      "reuse": 8889,
      "enrich": 8890,
      "ale": 8891,
      "alet": 8892,
      "maintain": 8893,
      "('[": 8894,
      "wire": 8895,
      "short_": 8896,
      "lenvals": 8897,
      "igid": 8898,
      "log_file": 8899,
      "get_model": 8900,
      "prepa": 8901,
      "minus": 8902,
      "imt_": 8903,
      "subcmd": 8904,
      "newlines": 8905,
      "sympy": 8906,
      "Details": 8907,
      "indexed": 8908,
      "filled": 8909,
      "backends": 8910,
      "elems": 8911,
      "ref_se": 8912,
      "imported": 8913,
      "csm": 8914,
      "nucm": 8915,
      "licy_": 8916,
      "opening": 8917,
      "rypto": 8918,
      "Project": 8919,
      "Program": 8920,
      "p_value": 8921,
      "0x00": 8922,
      "_perm": 8923,
      "111": 8924,
      "show_name": 8925,
      "registers": 8926,
      "Charact": 8927,
      "marks": 8928,
      "segmentation": 8929,
      "superclass": 8930,
      "SubElement": 8931,
      "install_type": 8932,
      "roots": 8933,
      "machines": 8934,
      "3600": 8935,
      "SERVER": 8936,
      "critical": 8937,
      "juju": 8938,
      "IGNOR": 8939,
      "genome": 8940,
      "systems": 8941,
      "predicate": 8942,
      "blackbox": 8943,
      "XXX": 8944,
      "spherical": 8945,
      "replican": 8946,
      "_param_types": 8947,
      "belon": 8948,
      "finger": 8949,
      "edfsignal": 8950,
      "destroy": 8951,
      "SUPPORTED": 8952,
      "hypothesis": 8953,
      "vilege": 8954,
      ".))": 8955,
      "/'+": 8956,
      "Amount": 8957,
      "CF": 8958,
      "Fac": 8959,
      "Fill": 8960,
      "Iss": 8961,
      "MR": 8962,
      "Password": 8963,
      "]\\": 8964,
      "_cls": 8965,
      "bend_": 8966,
      "cus": 8967,
      "cvals": 8968,
      "mle": 8969,
      "ming": 8970,
      "sf": 8971,
      "ino": 8972,
      "inset": 8973,
      "rem": 8974,
      "cean": 8975,
      "unsupported": 8976,
      "returncode": 8977,
      "ambig": 8978,
      "bee": 8979,
      "param_": 8980,
      "endTime": 8981,
      "logged": 8982,
      "Err": 8983,
      "preset": 8984,
      "readlines": 8985,
      "berg": 8986,
      "Deprecation": 8987,
      "base_path": 8988,
      "lock_code": 8989,
      "response_": 8990,
      "agger": 8991,
      "descend": 8992,
      "======": 8993,
      "_break": 8994,
      "defining": 8995,
      "ulet": 8996,
      "partial_": 8997,
      "referenced": 8998,
      "transform_name": 8999,
      "occurrences": 9000,
      "dependent_": 9001,
      "event_type": 9002,
      "cluster_ids": 9003,
      "Accept": 9004,
      "known_": 9005,
      "branch_2": 9006,
      "designspace": 9007,
      "amplitude": 9008,
      "convert_to_": 9009,
      "rendering": 9010,
      "derivatives": 9011,
      "resolve_id": 9012,
      "interpolate": 9013,
      "vertex_constructor": 9014,
      "published": 9015,
      "stract": 9016,
      "_MO": 9017,
      "_summary": 9018,
      "error_message": 9019,
      "esriGeometry": 9020,
      "treated": 9021,
      "Signal": 9022,
      "pvp_": 9023,
      "Settings": 9024,
      "_initializer": 9025,
      "Definition": 9026,
      "nest_coefs": 9027,
      "java_": 9028,
      "contig": 9029,
      "Transition": 9030,
      "recipients": 9031,
      "get_current_shutit_pexpect_session": 9032,
      "residuals": 9033,
      "_filt_": 9034,
      "Sigma": 9035,
      "vertex_constructor_param_types": 9036,
      "\"@": 9037,
      ")})": 9038,
      "Break": 9039,
      "Ce": 9040,
      "CUR": 9041,
      "Crop": 9042,
      "DAT": 9043,
      "GCS": 9044,
      "Hash": 9045,
      "[('": 9046,
      "_vertex": 9047,
      "_split_": 9048,
      "cdata": 9049,
      "hn": 9050,
      "nbins": 9051,
      "rsp": 9052,
      "z1": 9053,
      "inch": 9054,
      "thick": 9055,
      "deal": 9056,
      "ancy": 9057,
      "metain": 9058,
      "ung": 9059,
      "vert": 9060,
      "argument_": 9061,
      "objective": 9062,
      "ighe": 9063,
      "rength": 9064,
      "append_": 9065,
      "msgs": 9066,
      "bag": 9067,
      "odon": 9068,
      "cret": 9069,
      "__version": 9070,
      "compli": 9071,
      "classname": 9072,
      "community": 9073,
      "filt": 9074,
      "Loop": 9075,
      "new_text": 9076,
      "earth": 9077,
      "multipart": 9078,
      "_perform": 9079,
      "Timestamp": 9080,
      "Files": 9081,
      "looking": 9082,
      "rho_l": 9083,
      "slip": 9084,
      "DOMAIN": 9085,
      "FIEL": 9086,
      "file_io": 9087,
      "sampled": 9088,
      "SMS": 9089,
      "assoc": 9090,
      "arr1": 9091,
      "arr2": 9092,
      "displayed": 9093,
      "todolist": 9094,
      "sufy": 9095,
      "_page_": 9096,
      "ismic": 9097,
      "NTLM": 9098,
      "allest": 9099,
      "dh_": 9100,
      "accepts": 9101,
      "_IS_": 9102,
      "PREC": 9103,
      "Fore": 9104,
      "Quantity": 9105,
      "significant": 9106,
      "ismogenic_depth": 9107,
      "alette": 9108,
      "DeprecationWarning": 9109,
      "metainfo": 9110,
      "\"|": 9111,
      "\"``": 9112,
      "600": 9113,
      "Car": 9114,
      "GL": 9115,
      "Lam": 9116,
      "LTER": 9117,
      "ND": 9118,
      "Pay": 9119,
      "Rigid": 9120,
      "Tri": 9121,
      "]'": 9122,
      "_on": 9123,
      "_stream": 9124,
      "gif": 9125,
      "pane": 9126,
      "ube": 9127,
      "anim": 9128,
      "locally": 9129,
      "esh": 9130,
      "trc": 9131,
      "near": 9132,
      "keyname": 9133,
      "profile_": 9134,
      "linspace": 9135,
      "redis": 9136,
      "fact": 9137,
      "acceleration": 9138,
      "_sun": 9139,
      "_invoice": 9140,
      "computes": 9141,
      "ax1": 9142,
      "ATTR": 9143,
      "containers": 9144,
      "quick": 9145,
      "set_defaults": 9146,
      "ndk": 9147,
      "identical": 9148,
      "variable_scope": 9149,
      "Encoding": 9150,
      "plies": 9151,
      "visit_": 9152,
      "ICE_": 9153,
      "fail_": 9154,
      "cylin": 9155,
      "_configs": 9156,
      "spawn": 9157,
      "_cols": 9158,
      "administr": 9159,
      "tracks": 9160,
      "svc": 9161,
      "AGE_": 9162,
      "vmr": 9163,
      "swap": 9164,
      "gmf": 9165,
      "node_labels": 9166,
      "rollback": 9167,
      "granted": 9168,
      "exit_code": 9169,
      "Serialize": 9170,
      "completeness": 9171,
      "agent_": 9172,
      "outliers": 9173,
      "cpptypes": 9174,
      "*',": 9175,
      "Bl": 9176,
      "BFD": 9177,
      "Flags": 9178,
      "HC": 9179,
      "Json": 9180,
      "PID": 9181,
      "Sol": 9182,
      "Sms": 9183,
      "_ho": 9184,
      "_add": 9185,
      "dzn": 9186,
      "gt": 9187,
      "gt_": 9188,
      "gplt": 9189,
      "gives": 9190,
      "hdr": 9191,
      "i1": 9192,
      "ned": 9193,
      "tm": 9194,
      "yields": 9195,
      "inaccessible": 9196,
      "reload": 9197,
      "online": 9198,
      "envelope": 9199,
      "algo": 9200,
      "uring": 9201,
      "isnan": 9202,
      "tok": 9203,
      "asDictionary": 9204,
      "ulation": 9205,
      "weba": 9206,
      "spy": 9207,
      "fasta": 9208,
      "__unpack": 9209,
      "kws": 9210,
      "kwarg": 9211,
      "dir_": 9212,
      "dirty": 9213,
      "statname": 9214,
      "interp": 9215,
      "signer": 9216,
      "unit_name": 9217,
      "DataJoint": 9218,
      "results_dict": 9219,
      "misc": 9220,
      "auth_": 9221,
      "from_json": 9222,
      "plotted": 9223,
      "continu": 9224,
      "denom": 9225,
      "particle": 9226,
      "Checking": 9227,
      "Users": 9228,
      "_console": 9229,
      "magnitudes": 9230,
      "optim": 9231,
      "assumes": 9232,
      "Processing": 9233,
      "front": 9234,
      "executor": 9235,
      "assetcol": 9236,
      "handle_note": 9237,
      "crossover": 9238,
      "rotate": 9239,
      "_property": 9240,
      "sheet": 9241,
      "filtered_data": 9242,
      "Marker": 9243,
      "invoke": 9244,
      "Cause": 9245,
      "_emit_text": 9246,
      "_segments": 9247,
      "denominator": 9248,
      "FLOAT": 9249,
      "__unpack_id": 9250,
      "82": 9251,
      "CTR": 9252,
      "DD": 9253,
      "Deno": 9254,
      "Fon": 9255,
      "Gas": 9256,
      "Points": 9257,
      "Rob": 9258,
      "_j": 9259,
      "_mean": 9260,
      "_bound": 9261,
      "bri": 9262,
      "cate_": 9263,
      "fdr": 9264,
      "fallen": 9265,
      "glossary": 9266,
      "highe": 9267,
      "ka": 9268,
      "mf": 9269,
      "nice": 9270,
      "udf": 9271,
      "vap": 9272,
      "ym": 9273,
      "reet": 9274,
      "atmo": 9275,
      "fiat": 9276,
      "t_data": 9277,
      "pars": 9278,
      "ressed": 9279,
      "('>": 9280,
      "('')": 9281,
      "all_names": 9282,
      "arer": 9283,
      "codecs": 9284,
      "faci": 9285,
      "pytz": 9286,
      "formset": 9287,
      "table_type": 9288,
      "ipt": 9289,
      "rect_": 9290,
      "backward": 9291,
      "kenv": 9292,
      "_protocol": 9293,
      "_reference": 9294,
      "Proble": 9295,
      "box_size": 9296,
      "LOST": 9297,
      "max_length": 9298,
      "applies": 9299,
      "ropic": 9300,
      "UserError": 9301,
      "ULTI": 9302,
      "Running": 9303,
      "async_": 9304,
      "000000": 9305,
      "min_mag": 9306,
      "NVML_ERROR_GPU": 9307,
      "ArgumentError": 9308,
      "project_name": 9309,
      "HOIS": 9310,
      "TIMEOUT": 9311,
      "centered": 9312,
      "sentences": 9313,
      "Encryption": 9314,
      "banner": 9315,
      "Registry": 9316,
      "restriction": 9317,
      "descriptors": 9318,
      "interpreted": 9319,
      "rgb": 9320,
      "hookenv": 9321,
      "inherit": 9322,
      "extreme": 9323,
      "LookupError": 9324,
      "CONSTS": 9325,
      "recommended": 9326,
      "NVML_ERROR_NOT_SUPPORTED": 9327,
      "__version__": 9328,
      "_IS_LOST": 9329,
      "NVML_ERROR_GPU_IS_LOST": 9330,
      "03": 9331,
      "AY": 9332,
      "Bal": 9333,
      "Batch": 9334,
      "Fraction": 9335,
      "FONT_": 9336,
      "Got": 9337,
      "GE_": 9338,
      "IRE": 9339,
      "MQ": 9340,
      "PR": 9341,
      "Play": 9342,
      "Sco": 9343,
      "V1": 9344,
      "WIN": 9345,
      "_change": 9346,
      "_wrapper": 9347,
      "cite": 9348,
      "fw": 9349,
      "gain": 9350,
      "lif": 9351,
      "qa": 9352,
      "r1": 9353,
      "smar": 9354,
      "inge": 9355,
      "restrict": 9356,
      "stub": 9357,
      "stmt": 9358,
      "ari": 9359,
      "tom_": 9360,
      "idget": 9361,
      "mpl": 9362,
      "ress_": 9363,
      "_pass": 9364,
      "apal": 9365,
      "provision": 9366,
      "get_template": 9367,
      "calib": 9368,
      "floor": 9369,
      "user_data": 9370,
      "extname": 9371,
      "caped": 9372,
      "canon": 9373,
      "itemId": 9374,
      "singular": 9375,
      "contained": 9376,
      "debugging": 9377,
      "charm_": 9378,
      "centre": 9379,
      "docbody": 9380,
      "...)": 9381,
      "rootpy": 9382,
      "visit": 9383,
      "featureset_": 9384,
      "train_config": 9385,
      "environments": 9386,
      "_conn": 9387,
      "a_1": 9388,
      "Disable": 9389,
      "'-'": 9390,
      "_deg": 9391,
      "Prepare": 9392,
      "integral": 9393,
      "platforms": 9394,
      "weekday": 9395,
      "chosen_probs": 9396,
      "dh_d": 9397,
      "optimization": 9398,
      "collected": 9399,
      "Records": 9400,
      "predictions": 9401,
      "sunrise": 9402,
      "context_id": 9403,
      "TCOD_console": 9404,
      "press_": 9405,
      "_plane": 9406,
      "nicks": 9407,
      "_regexp": 9408,
      "Product_": 9409,
      "principal": 9410,
      "After": 9411,
      "Plane": 9412,
      "jacobian": 9413,
      "Illegal": 9414,
      "SCRIP": 9415,
      "Float": 9416,
      "several": 9417,
      "encountered": 9418,
      "failed_": 9419,
      ".]": 9420,
      "240": 9421,
      "={\"": 9422,
      "Case": 9423,
      "EMA": 9424,
      "LAB": 9425,
      "MULTI": 9426,
      "NB": 9427,
      "Nx": 9428,
      "Ptr": 9429,
      "PDU": 9430,
      "Sci": 9431,
      "Turn": 9432,
      "Year": 9433,
      "_IN": 9434,
      "_tags": 9435,
      "_mapping": 9436,
      "_sizes": 9437,
      "`:": 9438,
      "dry": 9439,
      "ilo": 9440,
      "ials": 9441,
      "ns_": 9442,
      "rq": 9443,
      "uv": 9444,
      "ond": 9445,
      "algorith": 9446,
      "tesian": 9447,
      "geop": 9448,
      "mout": 9449,
      "int64": 9450,
      "listing": 9451,
      "outs": 9452,
      "quit": 9453,
      "linter": 9454,
      "from_key": 9455,
      "ised": 9456,
      "performs": 9457,
      "_id_": 9458,
      "_sm": 9459,
      "subnets": 9460,
      "maxiter": 9461,
      "__api_request": 9462,
      "longs": 9463,
      "atient": 9464,
      "is_valid": 9465,
      "SET_": 9466,
      "hashed": 9467,
      "_black": 9468,
      "ation_mode": 9469,
      "enumer": 9470,
      "TIC": 9471,
      "expect_": 9472,
      "stackoverflow": 9473,
      "_horiz": 9474,
      "GeoRaster": 9475,
      "letter": 9476,
      "quoted_": 9477,
      "itize": 9478,
      "reduction": 9479,
      "TERM": 9480,
      "equivalence": 9481,
      "ts_check_": 9482,
      "executing": 9483,
      "macros": 9484,
      "grp_id": 9485,
      "(',')": 9486,
      "_print_": 9487,
      "aggregation": 9488,
      "replica": 9489,
      "Stack": 9490,
      "widget": 9491,
      "CONFIG": 9492,
      "Entity": 9493,
      "padding_": 9494,
      "sclk": 9495,
[...]
